{"<|endoftext|>":0,"<|im_start|>":1,"<|im_end|>":2,"<|object_ref_start|>":3,"<|object_ref_end|>":4,"<|box_start|>":5,"<|box_end|>":6,"<|quad_start|>":7,"<|quad_end|>":8,"<|vision_start|>":9,"<|vision_end|>":10,"<|vision_pad|>":11,"<|image_pad|>":12,"<|video_pad|>":13,"<|audio_start|>":14,"<|audio_end|>":15,"<|audio_pad|>":16,"<tts_pad>":17,"<tts_text_bos>":18,"<tts_text_eod>":19,"<tts_text_bos_single>":20,"<tool_call>":21,"</tool_call>":22,"<tool_response>":23,"</tool_response>":24,"<think>":25,"</think>":26,"<|buffer1|>":27,"<|buffer2|>":28,"<|buffer3|>":29,"<|buffer4|>":30,"<|buffer5|>":31,"<|buffer6|>":32,"<|buffer7|>":33,"<|buffer8|>":34,"<|buffer9|>":35,"!":36,"\"":37,"#":38,"$":39,"%":40,"&":41,"'":42,"(":43,")":44,"*":45,"+":46,",":47,"-":48,".":49,"/":50,"0":51,"1":52,"2":53,"3":54,"4":55,"5":56,"6":57,"7":58,"8":59,"9":60,":":61,";":62,"<":63,"=":64,">":65,"?":66,"@":67,"A":68,"B":69,"C":70,"D":71,"E":72,"F":73,"G":74,"H":75,"I":76,"J":77,"K":78,"L":79,"M":80,"N":81,"O":82,"P":83,"Q":84,"R":85,"S":86,"T":87,"U":88,"V":89,"W":90,"X":91,"Y":92,"Z":93,"[":94,"\\":95,"]":96,"^":97,"_":98,"`":99,"a":100,"b":101,"c":102,"d":103,"e":104,"f":105,"g":106,"h":107,"i":108,"j":109,"k":110,"l":111,"m":112,"n":113,"o":114,"p":115,"q":116,"r":117,"s":118,"t":119,"u":120,"v":121,"w":122,"x":123,"y":124,"z":125,"{":126,"|":127,"}":128,"~":129,"¡":130,"¢":131,"£":132,"¤":133,"¥":134,"¦":135,"§":136,"¨":137,"©":138,"ª":139,"«":140,"¬":141,"®":142,"¯":143,"°":144,"±":145,"²":146,"³":147,"´":148,"µ":149,"¶":150,"·":151,"¸":152,"¹":153,"º":154,"»":155,"¼":156,"½":157,"¾":158,"¿":159,"À":160,"Á":161,"Â":162,"Ã":163,"Ä":164,"Å":165,"Æ":166,"Ç":167,"È":168,"É":169,"Ê":170,"Ë":171,"Ì":172,"Í":173,"Î":174,"Ï":175,"Ð":176,"Ñ":177,"Ò":178,"Ó":179,"Ô":180,"Õ":181,"Ö":182,"×":183,"Ø":184,"Ù":185,"Ú":186,"Û":187,"Ü":188,"Ý":189,"Þ":190,"ß":191,"à":192,"á":193,"â":194,"ã":195,"ä":196,"å":197,"æ":198,"ç":199,"è":200,"é":201,"ê":202,"ë":203,"ì":204,"í":205,"î":206,"ï":207,"ð":208,"ñ":209,"ò":210,"ó":211,"ô":212,"õ":213,"ö":214,"÷":215,"ø":216,"ù":217,"ú":218,"û":219,"ü":220,"ý":221,"þ":222,"ÿ":223,"Ā":224,"ā":225,"Ă":226,"ă":227,"Ą":228,"ą":229,"Ć":230,"ć":231,"Ĉ":232,"ĉ":233,"Ċ":234,"ċ":235,"Č":236,"č":237,"Ď":238,"ď":239,"Đ":240,"đ":241,"Ē":242,"ē":243,"Ĕ":244,"ĕ":245,"Ė":246,"ė":247,"Ę":248,"ę":249,"Ě":250,"ě":251,"Ĝ":252,"ĝ":253,"Ğ":254,"ğ":255,"Ġ":256,"ġ":257,"Ģ":258,"ģ":259,"Ĥ":260,"ĥ":261,"Ħ":262,"ħ":263,"Ĩ":264,"ĩ":265,"Ī":266,"ī":267,"Ĭ":268,"ĭ":269,"Į":270,"į":271,"İ":272,"ı":273,"Ĳ":274,"ĳ":275,"Ĵ":276,"ĵ":277,"Ķ":278,"ķ":279,"ĸ":280,"Ĺ":281,"ĺ":282,"Ļ":283,"ļ":284,"Ľ":285,"ľ":286,"Ŀ":287,"ŀ":288,"Ł":289,"ł":290,"Ń":291,"ï¼":292,"ä¸":293,"ï¼Į":294,"çļ":295,"çļĦ":296,"æľ":297,"ãĢ":298,"ä½":299,"äº":300,"ãĢĤ":301,"ä»":302,"è¿":303,"åı":304,"æĪ":305,"åĪ":306,"åħ":307,"å¤":308,"æľī":309,"åľ":310,"åĲ":311,"åĬ":312,"ï¼Ł":313,"ĥ½":314,"ä¹":315,"åľ¨":316,"å®":317,"è§":318,"æĦ":319,"èĥ½":320,"æĸ":321,"çĶ":322,"ä¼":323,"åŃ":324,"è¯":325,"çĲ":326,"æĢ":327,"æĪĳ":328,"ä¸İ":329,"éĢ":330,"è®":331,"æĺ":332,"æķ":333,"äºº":334,"æĹ":335,"ä½ł":336,"çĲĨ":337,"æĥ":338,"ç»":339,"¦Ĥ":340,"å¦Ĥ":341,"è¿ĩ":342,"åĮ":343,"æĺ¯":344,"åĴ":345,"ãĢģ":346,"åĴĮ":347,"åı¯":348,"æ³":349,"ä¿":350,"æĿ":351,"åĮĸ":352,"éĹ":353,"æľĢ":354,"ä¸Ģ":355,"èĩ":356,"æ²":357,"å¯":358,"å¼":359,"æĹ¶":360,"åº":361,"æĬ":362,"å¾":363,"éĩ":364,"çİ":365,"æĢ§":366,"ä¸į":367,"å°":368,"å·":369,"èĢ":370,"æĦı":371,"æŀ":372,"æĦŁ":373,"å½":374,"å¤©":375,"è¡":376,"è¿ĳ":377,"èĩª":378,"çľ":379,"å¹":380,"å¿":381,"ä½ľ":382,"æľĢè¿ĳ":383,"ç§":384,"åĨ":385,"æĥħ":386,"æķ°":387,"æľ¯":388,"æİ":389,"åĵ":390,"ç±":391,"åĽ":392,"æĬĢ":393,"çĶ¨":394,"âĢ":395,"æ²¡":396,"æł":397,"ä¸º":398,"æ³ķ":399,"ä¹Ī":400,"äºİ":401,"æĮ":402,"ä½ĵ":403,"ç±»":404,"ç®":405,"åĩ":406,"æ²¡æľī":407,"æĻ":408,"AI":409,"é¢":410,"ä¸ª":411,"åŃ¦":412,"éľ":413,"è¾":414,"æĸĩ":415,"åĬ¨":416,"æı":417,"ä»¥":418,"è¯Ĩ":419,"éĢļ":420,"éľĢ":421,"ä¾":422,"åį":423,"è§£":424,"åĲĮ":425,"ä¼ļ":426,"çī":427,"çĽ":428,"å®ŀ":429,"æĽ":430,"æıĲ":431,"å¸":432,"æŃ":433,"ä¸Ń":434,"å¯¹":435,"äººç±»":436,"æĬĢæľ¯":437,"çŁ":438,"åĬĽ":439,"ä½Ĩ":440,"æį":441,"æī":442,"çĶŁ":443,"å·¥":444,"çİ°":445,"åĪĽ":446,"çŃ":447,"åĪ°":448,"èµ":449,"éĿ":450,"å½±":451,"Ģä¹Ī":452,"ä»Ģä¹Ī":453,"æľīæ²¡æľī":454,"ä¿Ŀ":455,"æĥ³":456,"ä½ķ":457,"ï¼ļ":458,"æĸĩåĮĸ":459,"éĢļè¿ĩ":460,"æį®":461,"æĪĸ":462,"éĹ´":463,"**":464,"éģ":465,"çķ":466,"Ĭå¤©":467,"ç®Ĺ":468,"æĽ´":469,"äºĨ":470,"ç¡":471,"æĿ¥":472,"å¦Ĥä½ķ":473,"èĢĮ":474,"æķĪ":475,"è¶":476,"çŁ¥":477,"åıĳ":478,"åħ³":479,"å¥":480,"ä»Ĭå¤©":481,"¡æ":482,"å±":483,"¦çĲĨ":484,"åŃĺ":485,"æĸ¹":486,"çľĭ":487,"ä¼¦çĲĨ":488,"æĦıè¯Ĩ":489,"ç¡®":490,"å¹³":491,"åģ":492,"åĲĪ":493,"åĪĨ":494,"åı¯èĥ½":495,"å¤ļ":496,"åº¦":497,"åĬ©":498,"ģ¯":499,"æĮģ":500,"æĻº":501,"æĪĲ":502,"é¢ĺ":503,"åĢ":504,"è¿Ļ":505,"éĻ":506,"åĳ":507,"æķ°æį®":508,"è¦":509,"æĸ°":510,"æĻºèĥ½":511,"çķĮ":512,"è¦ģ":513,"åŃĺåľ¨":514,"æŀľ":515,"ä¸»":516,"åİ":517,"éĹ®":518,"èĩªæĪĳ":519,"å¿ĥ":520,"æ´":521,"è·":522,"æĶ":523,"è´":524,"ĠĠ":525,"åĵį":526,"ä¿¡æ":527,"ä¿¡æģ¯":528,"æ¯":529,"éļ":530,"éĩį":531,"æĥħæĦŁ":532,"å®ļ":533,"è§Ĥ":534,"æµ":535,"æĭ":536,"éĩı":537,"å»":538,"åŁ":539,"åºĶ":540,"âĢľ":541,"âĢĿ":542,"å½±åĵį":543,"ï¼ģ":544,"æİ¨":545,"ç®Ĺæ³ķ":546,"åĩĨ":547,"çľŁ":548,"éª":549,"å¥½":550,"åĨ³":551,"ä»¬":552,"è¡¡":553,"æ¨":554,"å»º":555,"è¡Į":556,"æ³¨":557,"ä¾Ľ":558,"æľĢè¿ĳæľīæ²¡æľī":559,"æıĲä¾Ľ":560,"æ°":561,"å¾Ĺ":562,"æ´»":563,"éĹ®é¢ĺ":564,"è°":565,"éªĮ":566,"é«":567,"ä¹ł":568,"é«ĺ":569,"ä¸ĭ":570,"åŃĲ":571,"æĹ¶éĹ´":572,"è®¤":573,"èī":574,"å¦Ĥæŀľ":575,"å¹³è¡¡":576,"äººå·¥":577,"å¢":578,"ç§į":579,"åı¯ä»¥":580,"è¿Ľ":581,"äººå·¥æĻºèĥ½":582,"äºĭ":583,"åĲĹ":584,"æł·":585,"ç³":586,"è§ī":587,"çĲĨè§£":588,"æĢĿ":589,"æ¬":590,"èģ":591,"æľº":592,"åıĺ":593,"è¶£":594,"æ¨¡":595,"åħ¨":596,"éĶ":597,"çī¹":598,"çĦ":599,"å¼ı":600,"å¸®":601,"åħ·":602,"è®¡":603,"ä¹Ł":604,"Ġä½ł":605,"åĢ¼":606,"æĹł":607,"åĲĮæĹ¶":608,"æ·":609,"å¤Ħ":610,"ç§ĳ":611,"åĪ«":612,"è¾¹":613,"ï¼Ľ":614,"æ¡":615,"å°ı":616,"ç¤":617,"çº":618,"éĿ¢":619,"åĽł":620,"ä¼ĺ":621,"çŃī":622,"åŀ":623,"å±ķ":624,"è®©":625,"é£":626,"æľ¬":627,"ç³»":628,"ä¹ī":629,"ï¼ī":630,"èº":631,"åįĩ":632,"åī":633,"ä»·":634,"ä»»":635,"ä½ĵéªĮ":636,"äºĽ":637,"åĪ¶":638,"æĺİ":639,"çĶµ":640,"èº«":641,"åŀĭ":642,"åĩº":643,"åŃ¦ä¹ł":644,"æľª":645,"å¤ĦçĲĨ":646,"çī©":647,"é«ĺæķĪ":648,"æ·±":649,"èĢħ":650,"å¤į":651,"åĸ":652,"æıĲåįĩ":653,"æº":654,"ä»·åĢ¼":655,"ä½¿":656,"çĽ®":657,"éĿŀ":658,"åĲ¦":659,"æĪ·":660,"çĦ¶":661,"Ġ**":662,"æ°Ķ":663,"ï¼Ī":664,"çİĩ":665,"æĪĳä»¬":666,"æ¯ı":667,"ç´":668,"ç«":669,"åĪĽä½ľ":670,"çĶŁæ´»":671,"æºĲ":672,"è°ĥ":673,"åľ°":674,"è¯Ń":675,"è®¾":676,"è¾¹çķĮ":677,"æµģ":678,"å¸®åĬ©":679,"åŃĹ":680,"åħ±":681,"åľ¨äºİ":682,"ç¤¾":683,"æ±":684,"èµ·":685,"å¢ĥ":686,"åħ¬":687,"éģĩ":688,"éĩıåŃĲ":689,"çĶ¨æĪ·":690,"èīº":691,"åıĬ":692,"åĬ¡":693,"åĪĻ":694,"è¯ķ":695,"æĺ¯åĲ¦":696,"è´¨":697,"ä¸Ģä¸ª":698,"æĢģ":699,"åħ¶":700,"æķĪçİĩ":701,"äº¤":702,"éģĩåĪ°":703,"éĺ":704,"ç»ĵ":705,"è§Ħ":706,"èĥ½åĬĽ":707,"åĨħ":708,"è®¤çŁ¥":709,"çŃĸ":710,"éĢł":711,"è·¨":712,"ç¨":713,"ä½ľä¸º":714,"ä»£":715,"çĤ":716,"ä¸įåĲĮ":717,"æķ°åŃĹ":718,"ç»ı":719,"å¼Ģ":720,"ä½łæľĢè¿ĳæľīæ²¡æľī":721,"ç¬":722,"æ±Ĥ":723,"ç¡®ä¿Ŀ":724,"æĹłæ³ķ":725,"èĩªæĪĳæĦıè¯Ĩ":726,"æŃ¥":727,"èīºæľ¯":728,"æĪĳçļĦ":729,"æłĩ":730,"å¯¼":731,"éĢī":732,"éľĢè¦ģ":733,"å¤©æ°Ķ":734,"**ï¼ļ":735,"æľªæĿ¥":736,"æ¸":737,"å¼º":738,"éĢĤ":739,"ç»´":740,"å°Ĩ":741,"è®®":742,"æĦıä¹ī":743,"ç«ĭ":744,"ä¿ĿæĮģ":745,"ä¸Ĭ":746,"ä»ĸ":747,"åıĳå±ķ":748,"ä»İ":749,"åĽ½":750,"æ¨¡åŀĭ":751,"å¹¶":752,"æŃ¤":753,"ç²":754,"ç©":755,"æŃ£":756,"åĳ¢":757,"çĶµå½±":758,"åģļ":759,"åįı":760,"å®ŀçİ°":761,"ç¨ĭ":762,"ç»Ł":763,"ä¸ĵ":764,"æĸŃ":765,"çĲĥ":766,"å¾Ī":767,"ãĢĬ":768,"ãĢĭ":769,"æķ´":770,"è¡¨":771,"æĢİ":772,"è¿Ļç§į":773,"ä¼ł":774,"åĬł":775,"æŀĦ":776,"çł":777,"çĤ¹":778,"æĿĤ":779,"æĭ©":780,"æİ¢":781,"åĸľ":782,"æĸ¹å¼ı":783,"å®ĥ":784,"å¤įæĿĤ":785,"çī¹åĪ«":786,"éļĲ":787,"ä¸»è§Ĥ":788,"ç»Ń":789,"éĢīæĭ©":790,"ç²¾":791,"èĢĮéĿŀ":792,"ç¼":793,"çª":794,"éķ":795,"ä¸ŃçļĦ":796,"ä¸Ģèµ·":797,"èį":798,"ä¾ĭ":799,"åŁº":800,"äºĴ":801,"æľīè¶£":802,"åİ»":803,"è®¡ç®Ĺ":804,"å·®":805,"æĿĥ":806,"æĶ¹":807,"éģ¿":808,"å®¶":809,"æ¬¢":810,"é¡":811,"çªģ":812,"ä¼ĺåĮĸ":813,"æ²»":814,"å®¹":815,"æĢİä¹Ī":816,"åħį":817,"ä½łä»Ĭå¤©":818,"éĻĲ":819,"è§Ĩ":820,"éĶ®":821,"èĬ":822,"èĻ":823,"ä¸ĵæ³¨":824,"åħ³éĶ®":825,"å¿«":826,"åĪĽéĢł":827,"éģ¿åħį":828,"å¤§":829,"éķ¿":830,"åıĹ":831,"å¼Ĥ":832,"è§£åĨ³":833,"ç§ģ":834,"æ¯Ķ":835,"æľĢè¿ĳåľ¨":836,"ä¾ĭå¦Ĥ":837,"æīĭ":838,"æ¶":839,"è¿ĺ":840,"åĨ³çŃĸ":841,"éļĲç§ģ":842,"æİ¨èį":843,"æİ¨èįĲ":844,"ç¤¾ä¼ļ":845,"èĩ´":846,"åŃĺåľ¨çļĦ":847,"èĮ":848,"è½":849,"æ²»çĲĨ":850,"åħ¨çĲĥ":851,"æľīä»Ģä¹Ī":852,"èģĬ":853,"éĻħ":854,"é£Ł":855,"æĮģç»Ń":856,"éĥ½":857,"æŀ¶":858,"åĲĳ":859,"èĭ":860,"å½ĵ":861,"åıį":862,"è¾¾":863,"éĥ":864,"ä»»åĬ¡":865,"ä½łæľīæ²¡æľī":866,"æľīè¶£çļĦ":867,"ä»į":868,"å¤ĸ":869,"åĸľæ¬¢":870,"æŀĲ":871,"æİ¥":872,"åīį":873,"ä½ľä¸ºAI":874,"èĢĥ":875,"éĢŁ":876,"ä»¶":877,"çĽ¸":878,"åģı":879,"æľŁ":880,"åŁŁ":881,"å¸¸":882,"ä¹ĭ":883,"äººå·¥æĻºèĥ½ä¼¦çĲĨ":884,"å¾ĭ":885,"åĪ©":886,"çľŁå®ŀ":887,"å·¥ä½ľ":888,"åħ¥":889,"å»ºç«ĭ":890,"Ĩæŀ¶":891,"è¢":892,"å·®å¼Ĥ":893,"æĶ¹åıĺ":894,"åħĪ":895,"æĦŁè§ī":896,"èĬĤ":897,"å¼ķ":898,"åĵ²":899,"éĥ¨":900,"¨Ģ":901,"è¨Ģ":902,"å°Ŀ":903,"ä¸ĸ":904,"åĪĨæŀĲ":905,"èĭ¥":906,"ç´¢":907,"çĶ±":908,"åĵª":909,"æĢİä¹Īæł·":910,"æ¡Ĩæŀ¶":911,"æĬ¤":912,"ä¸ĸçķĮ":913,"èĩªèº«":914,"æĪĺ":915,"åĵ²åŃ¦":916,"çĿ":917,"è¢«":918,"åĲİ":919,"åħ´":920,"æİ¨åĬ¨":921,"ä¾Ŀ":922,"è§ģ":923,"æĮĳ":924,"ä¸ªäºº":925,"è¾ĳ":926,"å¦Ĥä½ķå½±åĵį":927,"åıª":928,"æĮĳæĪĺ":929,"å°ĳ":930,"in":931,"ç»ª":932,"éĢ»":933,"éĢ»è¾ĳ":934,"å°Ŀè¯ķ":935,"åĲĥ":936,"çĶŁæĪĲ":937,"ç¾":938,"è·¯":939,"è±":940,"åħ´è¶£":941,"ä¸ī":942,"æĻ¯":943,"è·¨æĸĩåĮĸ":944,"åħ³ç³»":945,"è¯Ŀ":946,"å¯¼èĩ´":947,"æĥħç»ª":948,"åıĤ":949,"åķ":950,"ç²¾åĩĨ":951,"æīĢ":952,"é¢Ĩ":953,"äº«":954,"åĵģ":955,"åĽłæŃ¤":956,"è¯Ńè¨Ģ":957,"Ġ=":958,"æī¾":959,"é¢ĨåŁŁ":960,"å·±":961,"æĥ³è¿ĩ":962,"è¾ħ":963,"åıĸ":964,"éĹ¨":965,"æİ¢ç´¢":966,"å®Į":967,"æľ¬è´¨":968,"é¥":969,"äººç±»çļĦ":970,"çŁ¥è¯Ĩ":971,"åħ³éĶ®åľ¨äºİ":972,"çİ¯":973,"èĩªå·±":974,"éĶĻ":975,"è§Ĵ":976,"åĽŀ":977,"æĦŁçŁ¥":978,"ç§ĳåŃ¦":979,"åºĶçĶ¨":980,"åĩĨç¡®":981,"å¾ħ":982,"çİ°å®ŀ":983,"ä¸ĢäºĽ":984,"å®ī":985,"åĪĽéĢłåĬĽ":986,"å»ºè®®":987,"æĤ":988,"ä¹¦":989,"è¾ħåĬ©":990,"å·¥åħ·":991,"å¸¦":992,"åĪĽæĸ°":993,"è¯»":994,"çŃĶ":995,"çĭ":996,"è®°":997,"è¡¨è¾¾":998,"åĮħ":999,"ä¸ªä½ĵ":1000,"åıĭ":1001,"Ġä½łå¦Ĥä½ķ":1002,"åĪ¤":1003,"éľĢæ±Ĥ":1004,"åĿ":1005,"æł¹":1006,"æŁ":1007,"ðŁ":1008,"ä¿ĿæĬ¤":1009,"éĩĮ":1010,"é£İ":1011,"è¿ĩå¾Ĺ":1012,"éĩıåŃĲè®¡ç®Ĺ":1013,"å½¢":1014,"ä½¿çĶ¨":1015,"åŁºäºİ":1016,"éĢı":1017,"æ¬¡":1018,"åİŁ":1019,"äº§":1020,"ç§ĳæĬĢ":1021,"å¿Ļ":1022,"ç»ĥ":1023,"è°ĥæķ´":1024,"ä¿ĥ":1025,"æľºåĪ¶":1026,"éģĩåĪ°è¿ĩ":1027,"æĹ¥":1028,"æ»":1029,"Ġ$":1030,"èµĸ":1031,"æľĭ":1032,"æľĭåıĭ":1033,"ç»ĵåĲĪ":1034,"éĽ":1035,"æ¯ıå¤©":1036,"åĪ»":1037,"éŁ":1038,"ä¾Ŀèµĸ":1039,"çĸ":1040,"çĽ´":1041,"åħ·ä½ĵ":1042,"åĨħå®¹":1043,"ä¸»è§Ĥä½ĵéªĮ":1044,"è®º":1045,"éĴ":1046,"ç®¡":1047,"æľį":1048,"éĢıæĺİ":1049,"è¯´":1050,"å°±":1051,"æĿ¡":1052,"å±Ĥ":1053,"æĮº":1054,"åħ¬å¹³":1055,"åĨµ":1056,"æłĩåĩĨ":1057,"æ·±åº¦":1058,"è®¾è®¡":1059,"æĢ§ä¸İ":1060,"æ¯Ķå¦Ĥ":1061,"ä¹ĭéĹ´":1062,"æĶ¯":1063,"èµĦ":1064,"ç¥":1065,"èĮĥ":1066,"ä¹Ĳ":1067,"æĢĿèĢĥ":1068,"å¢ŀ":1069,"æł¸":1070,"çľĭå¾ħ":1071,"å¿«éĢŁ":1072,"å¡":1073,"åİĨ":1074,"æł¹æį®":1075,"ç¬¬":1076,"ç¢":1077,"ä¸ļ":1078,"èµ°":1079,"ä½łæľī":1080,"ä¸įéĶĻ":1081,"ä»Ĭå¤©å¤©æ°Ķ":1082,"è´£":1083,"æļ":1084,"çļĦä¿¡æģ¯":1085,"éŁ³":1086,"çģ":1087,"æĽ¿":1088,"ç®Ģ":1089,"è®Ń":1090,"åģıè§ģ":1091,"è§īå¾Ĺ":1092,"çĿĢ":1093,"çīĩ":1094,"èī²":1095,"æĶ¾":1096,"½ŀ":1097,"ï½ŀ":1098,"åĬ¨æĢģ":1099,"çļĦäºĭ":1100,"æĸ¹éĿ¢":1101,"äºĴåĬ¨":1102,"çĭ¬":1103,"èĥ":1104,"éļ¾":1105,"ĨĴ":1106,"å¿ĥæĥħ":1107,"åĪ¤æĸŃ":1108,"éģĵ":1109,"æħ":1110,"æĥħåĨµ":1111,"æ¡Ī":1112,"æĶ¯æĮģ":1113,"å¤ļæł·":1114,"çĽ®æłĩ":1115,"å¸¦æĿ¥":1116,"å¼ķåıĳ":1117,"å¡ĳ":1118,"è¿Ĳ":1119,"ç»Ī":1120,"åľº":1121,"èĤ":1122,"è±¡":1123,"è®Ńç»ĥ":1124,"çļĦè¾¹çķĮ":1125,"äººå·¥æĻºèĥ½ä¼¦çĲĨåľ¨":1126,"åĥ":1127,"ä»·åĢ¼è§Ĥ":1128,"ç¾İ":1129,"åıĳçİ°":1130,"è®¨":1131,"åħ³æ³¨":1132,"å¢ĥä¸ĭ":1133,"çľŁæŃ£":1134,"åĥı":1135,"æĢĿç»´":1136,"èģĶ":1137,"é¦":1138,"åħī":1139,"é¸":1140,"ç¬¦":1141,"åģ¥":1142,"èĩªçĦ¶":1143,"æ¶ī":1144,"é¢Ħ":1145,"çĥ":1146,"å¤Ł":1147,"æł¸å¿ĥ":1148,"éļı":1149,"æ¶īåıĬ":1150,"Ġä½łå¦Ĥä½ķçľĭå¾ħ":1151,"çļĦçĶµå½±":1152,"å¤ĩ":1153,"ç¥ŀ":1154,"ç³»ç»Ł":1155,"åĩı":1156,"åĻ":1157,"ä¸ĵæ³¨äºİ":1158,"åĽ°":1159,"åħ»":1160,"è¶Ĭ":1161,"ä¼ĺåħĪ":1162,"æĽ¿ä»£":1163,"åįķ":1164,"èİ":1165,"å¯Ĩ":1166,"åĲĪä½ľ":1167,"Ġ+":1168,"åı£":1169,"èĦ":1170,"å®īåħ¨":1171,"ä¸įè¿ĩ":1172,"è¿Ľè¡Į":1173,"Min":1174,"åº·":1175,"é¡¹":1176,"æ¸ħ":1177,"ç©º":1178,"æĹ¢":1179,"éĩįè¦ģ":1180,"é¥®":1181,"è¥":1182,"åģ¥åº·":1183,"è¥¿":1184,"äººå·¥æĻºèĥ½ä¼¦çĲĨåľ¨è·¨æĸĩåĮĸ":1185,"ä»ĸäºº":1186,"æī¾åĪ°":1187,"åĻ¨":1188,"éħ":1189,"ä½ĵçİ°":1190,"èĥĮ":1191,"èİ·":1192,"æĤ¨":1193,"è¿ĩåº¦":1194,"åıĪ":1195,"æĿ¡ä»¶":1196,"æĢ»":1197,"èĥ½å¤Ł":1198,"éĤ":1199,"æķĻ":1200,"çľĭè¿ĩ":1201,"èīºæľ¯åĪĽä½ľ":1202,"æĪĳçļĦåŃĺåľ¨":1203,"Ġ1":1204,"æ²Ł":1205,"çģµ":1206,"åĨ²":1207,"åĢĴ":1208,"ä¿ĥè¿Ľ":1209,"ä¼łç»Ł":1210,"åĪĨäº«":1211,"åĲ¬":1212,"çłĶ":1213,"ç½":1214,"å¦Ĥä½ķå¹³è¡¡":1215,"æĪ¿":1216,"åī§":1217,"ðŁĺ":1218,"èµĭ":1219,"åħħ":1220,"è¿ĩç¨ĭ":1221,"ç©¶":1222,"ä¸Ķ":1223,"æ¸©":1224,"ç¬¦åĲĪ":1225,"è§ĦèĮĥ":1226,"æ¼":1227,"çİ¯å¢ĥ":1228,"åĩıå°ĳ":1229,"è¿ĻäºĽ":1230,"å¤±":1231,"åĮº":1232,"æĥ¯":1233,"å¯Ł":1234,"æ°´":1235,"åıĺåĮĸ":1236,"å¹´":1237,"è¶ħ":1238,"æľįåĬ¡":1239,"æķĪçİĩä¸İ":1240,"éĻ©":1241,"å¢ŀå¼º":1242,"ç¦":1243,"è¿½":1244,"æĦıè¯ĨçļĦ":1245,"è®¸":1246,"è´£ä»»":1247,"å¾Ħ":1248,"åĢĴæµģ":1249,"ä¹łæĥ¯":1250,"å¤ļæł·æĢ§":1251,"ç¤¾äº¤":1252,"åİĭ":1253,"å±ŀ":1254,"éħį":1255,"è¯Ńå¢ĥä¸ĭ":1256,"å¿ĥçĲĨ":1257,"æģ¯":1258,"ä»Ĭå¤©æĥ³":1259,"ä¸įä¼ļ":1260,"é¥®é£Ł":1261,"çļĦåĲĹ":1262,"åĳ³":1263,"åĪĴ":1264,"èµĦæºĲ":1265,"æµĭ":1266,"å§":1267,"æİ¨çĲĨ":1268,"åĽ½å®¶":1269,"è¶³":1270,"Ġ2":1271,"æĸ¹åĲĳ":1272,"åĨ²çªģ":1273,"è·¯å¾Ħ":1274,"æºĲäºİ":1275,"äººå·¥æĻºèĥ½ä¼¦çĲĨåľ¨è·¨æĸĩåĮĸè¯Ńå¢ĥä¸ĭ":1276,"æĦŁåıĹ":1277,"æĸ°çļĦ":1278,"çłĶç©¶":1279,"æ®":1280,"å¥ı":1281,"ä½ľåĵģ":1282,"æľīä»Ģä¹Īæĥ³":1283,"åįıä½ľ":1284,"éĴŁ":1285,"å¾Ģ":1286,"åĽ¾":1287,"èĻĳ":1288,"åıįæĢĿ":1289,"éĢĤåĲĪ":1290,"éģĩåĪ°ä»Ģä¹Ī":1291,"æ´»åĬ¨":1292,"çł´":1293,"è½¬":1294,"èŀ":1295,"çĬ":1296,"åĴĮæľĭåıĭ":1297,"è®©ä½ł":1298,"æ»¡":1299,"æī¿":1300,"èŀį":1301,"åıĤæķ°":1302,"è¿ĩå¾ĹæĢİä¹Īæł·":1303,"ä½Ĩåı¯ä»¥":1304,"åĲĦ":1305,"åħ±åĲĮ":1306,"èĬĤå¥ı":1307,"è¯ģ":1308,"è¡Įä¸º":1309,"è¿ĽæŃ¥":1310,"æ¨¡å¼ı":1311,"æĪĳä¼ļ":1312,"çĽĬ":1313,"æĪĳåı¯ä»¥":1314,"æĪĲä¸º":1315,"è§£çŃĶ":1316,"èĩªå·±çļĦ":1317,"æĪĳæ²¡æľī":1318,"æŁĲ":1319,"ç®¡çĲĨ":1320,"ç®Ĺæ³ķåģıè§ģ":1321,"ä¸¤":1322,"è§£åĨ³éĹ®é¢ĺ":1323,"æĪĲéķ¿":1324,"ä¿¡":1325,"ä¸įæĸŃ":1326,"ç§¯":1327,"ä¸İä¼¦çĲĨ":1328,"å¼Ģå¿ĥ":1329,"ä½ľä¸ºAIæ¨¡åŀĭ":1330,"åĳ½":1331,"æĽ´å¤ļ":1332,"æīĭæľº":1333,"æĺ¯ä»Ģä¹Ī":1334,"éĢĤåºĶ":1335,"å·²":1336,"ä¼¼":1337,"çº§":1338,"æ³¨æĦı":1339,"æ®µ":1340,"å¿µ":1341,"éĤ£":1342,"å½¢æĪĲ":1343,"æİĴ":1344,"ä½łçļĦ":1345,"äº¤æµģ":1346,"æĹħ":1347,"ä¸įåĲĮæĸĩåĮĸ":1348,"ðŁĺĬ":1349,"æľĢè¿ĳæľīæ²¡æľīäºº":1350,"å¯»":1351,"éĽĨ":1352,"åħĥ":1353,"æĬĢèĥ½":1354,"å§ĭ":1355,"çĪ":1356,"çļĦä¼¦çĲĨ":1357,"ä»¥åıĬ":1358,"è¿ĩåİ»":1359,"æĬĢæľ¯åıĳå±ķ":1360,"ä¸įæĺ¯":1361,"éĺ³":1362,"æİ§":1363,"å¼ºè°ĥ":1364,"æ²ŁéĢļ":1365,"åĪĨéĴŁ":1366,"æŀĦå»º":1367,"è§Ħå¾ĭ":1368,"éĥ¨åĪĨ":1369,"æħ¢":1370,"æĺİç¡®":1371,"éľĢéĢļè¿ĩ":1372,"çľŁçļĦ":1373,"æķ£":1374,"åĪ¶å®ļ":1375,"é»":1376,"æľºåĻ¨":1377,"çĦ¦":1378,"âĢĶ":1379,"æĪĳæĺ¯":1380,"æ³ķå¾ĭ":1381,"on":1382,"ĠA":1383,"çĶ»":1384,"æĿ¾":1385,"äºĮ":1386,"AIæ¨¡åŀĭ":1387,"åİĭåĬĽ":1388,"AIåľ¨":1389,"åĴĸ":1390,"ä½į":1391,"äººå·¥æĻºèĥ½åľ¨":1392,"æĹ¥å¸¸":1393,"åħ¨çĲĥæķ°åŃĹ":1394,"å½ķ":1395,"éķ¿æľŁ":1396,"åı²":1397,"äººç±»æĥħæĦŁ":1398,"åĴĸåķ":1399,"å¦Ĥä½ķåľ¨":1400,"èĥĮæĻ¯":1401,"çĬ¶":1402,"èĻļ":1403,"æĹħè¡Į":1404,"è®¤ä¸º":1405,"¡æĭ":1406,"ä¸ľ":1407,"æĻ®":1408,"èĤ²":1409,"ĠB":1410,"è¯ĨåĪ«":1411,"äºī":1412,"éĩĬ":1413,"ĠC":1414,"çļĦæĥħåĨµ":1415,"æĪĳæĹłæ³ķ":1416,"åĪ©çĶ¨":1417,"åľºæĻ¯":1418,"çļĦéĹ®é¢ĺ":1419,"âĨĴ":1420,"ä¸İæĸĩåĮĸ":1421,"è¯Ħ":1422,"æĹ©":1423,"å°Ĭ":1424,"æĪĸèĢħ":1425,"æīĢæľī":1426,"è®¾å®ļ":1427,"é¡¹çĽ®":1428,"æĿ¥æºĲ":1429,"éĺħ":1430,"ä½łæľĢè¿ĳ":1431,"åħ¬å¹³æĢ§":1432,"æķĻèĤ²":1433,"çĽĳ":1434,"å¯¹è¯Ŀ":1435,"åĴĸåķ¡":1436,"è®©æĪĳ":1437,"å¿Ĩ":1438,"ç¼º":1439,"ï¼īï¼Į":1440,"çļĦæĺ¯":1441,"é£İéĻ©":1442,"ç¥ŀç»ı":1443,"åĽ½éĻħ":1444,"¡æĭŁ":1445,"æ¨¡æĭŁ":1446,"èĦĳ":1447,"æĪ¿éĹ´":1448,"ç¡®å®ŀ":1449,"æ¼Ķ":1450,"å®ŀéĻħ":1451,"æĸ¹æ³ķ":1452,"ç»ĵæŀĦ":1453,"çº¿":1454,"ç±»åŀĭ":1455,"çĽ¸åħ³":1456,"æ²»çĲĨçļĦ":1457,"è®©äºº":1458,"å°Ĭéĩį":1459,"éŁ³ä¹Ĳ":1460,"çļĦäºĭæĥħ":1461,"éĺħè¯»":1462,"ä»Ģä¹Īå¥½":1463,"ç»´åº¦":1464,"æł¼":1465,"æİ¢è®¨":1466,"éĩįæĸ°":1467,"åĢĻ":1468,"åĲĥäºĨ":1469,"åĩĨç¡®æĢ§":1470,"å±Ģ":1471,"æĺ¯çļĦ":1472,"ç¼ĸ":1473,"ä¼ļä¸įä¼ļ":1474,"æľīåĬ©":1475,"æľīåĬ©äºİ":1476,"èı":1477,"çĽ´æİ¥":1478,"è¿ŀ":1479,"å¼Ģåıĳ":1480,"æŀģ":1481,"æľīè¶£çļĦäºĭ":1482,"ç»ıåİĨ":1483,"è§Ĩè§Ĵ":1484,"èİ·åıĸ":1485,"ä»½":1486,"åŃ¦ä¹łåĴĮ":1487,"10":1488,"æľĢç»Ī":1489,"ä½łä¼ļ":1490,"ä¼łæī¿":1491,"åıĤä¸İ":1492,"åĿļ":1493,"çªģçł´":1494,"èĩªæĪĳè®¤çŁ¥":1495,"éģĹ":1496,"äºĪ":1497,"ä¸»è¦ģ":1498,"ä»ħ":1499,"Ġä½łä»Ĭå¤©":1500,"åĽłä¸º":1501,"æĽ´å¥½":1502,"ing":1503,"Ġ-":1504,"éļıæĹ¶":1505,"åĲĪçĲĨ":1506,"å¾Īå¤ļ":1507,"å®ŀæĹ¶":1508,"æ¢":1509,"èĩªçĶ±":1510,"çŁŃ":1511,"æ·±åĪ»":1512,"å¿ħ":1513,"åºĶå¯¹":1514,"çļĦçĲĨè§£":1515,"ä½łæľīæ²¡æľīæĥ³è¿ĩ":1516,"çĥŃ":1517,"èĩªä¸»":1518,"è®°å¿Ĩ":1519,"æĪĳçļĦåŃĺåľ¨æĺ¯":1520,"æ³¨éĩį":1521,"å°Ŀè¯ķè¿ĩ":1522,"èıľ":1523,"è¯¯":1524,"å£":1525,"åĮ»":1526,"åŁ¹":1527,"çłģ":1528,"ä»¥ä¸ĭ":1529,"èĪ":1530,"og":1531,"ä¹ĭéĹ´çļĦ":1532,"éĢĲ":1533,"çķĮéĻĲ":1534,"åįıåĬ©":1535,"åĬŁ":1536,"ç»Ĩ":1537,"æļĸ":1538,"ç´ł":1539,"çĪ±":1540,"AIçļĦ":1541,"¤Ĳ":1542,"é¤Ĳ":1543,"èµĭäºĪ":1544,"ong":1545,"aog":1546,"yaog":1547,"ingyaog":1548,"ingyaogong":1549,"ĠĠĊ":1550,"å¼±":1551,"æĭĵ":1552,"æĭ¬":1553,"çĦ¶èĢĮ":1554,"åıªèĥ½":1555,"åİĨåı²":1556,"äºīè®®":1557,"è¯¥":1558,"åĪĽæĦı":1559,"çºł":1560,"ä¼ĺåħĪçº§":1561,"æ£":1562,"ä½İ":1563,"è¿ĲåĬ¨":1564,"æķ£æŃ¥":1565,"ä¸Ģç§į":1566,"åı¤":1567,"å®¢":1568,"èĩªèº«åŃĺåľ¨çļĦ":1569,"èº«ä»½":1570,"æ¶Ī":1571,"å®Įåħ¨":1572,"æĴ":1573,"æ¸ħæĻ":1574,"æŃ¤å¤ĸ":1575,"ä¸īä¸ª":1576,"Ġ3":1577,"å±ĤéĿ¢":1578,"è¿½æ±Ĥ":1579,"ä¹ı":1580,"æľĢè¿ĳæľī":1581,"çĽ®åīį":1582,"ç¡®å®ļ":1583,"æĺ¾":1584,"çªģçĦ¶":1585,"çĬ¶æĢģ":1586,"ç±į":1587,"çļĦçľŁå®ŀ":1588,"æµ·":1589,"ç½ĳ":1590,"æĮĩ":1591,"éľĢåľ¨":1592,"å¡ĳéĢł":1593,"éļľ":1594,"ç¼ºä¹ı":1595,"åİŁåĪĽ":1596,"èĲ":1597,"ç¤º":1598,"æĭŁ":1599,"åĮħæĭ¬":1600,"å®¡":1601,"ä¸İäºº":1602,"åį³":1603,"åįıåĲĮ":1604,"ä¸ºäºĨ":1605,"çļĦèĥ½åĬĽ":1606,"çĭ¬çī¹":1607,"é¸£":1608,"ä¾¿":1609,"äººç±»åĪĽéĢłåĬĽ":1610,"æīĢä»¥":1611,"åĤ":1612,"ç¡Ģ":1613,"åŁºç¡Ģ":1614,"æ»¡è¶³":1615,"äººä»¬":1616,"æĹ¶åĢĻ":1617,"ä½ĨéľĢ":1618,"æĺŁ":1619,"åħ³äºİ":1620,"ä¸»åĬ¨":1621,"æĶ¾æĿ¾":1622,"åı¯èĥ½å¼ķåıĳ":1623,"å¤ª":1624,"æĢ§çļĦ":1625,"æĦŁåĪ°":1626,"èģĬçļĦåĲĹ":1627,"å¾®":1628,"çĸĹ":1629,"æĽ´å¥½åľ°":1630,"æĦŁè§īçī¹åĪ«":1631,"åĮħå®¹":1632,"åŁ¹åħ»":1633,"åģĩ":1634,"ä¸ľè¥¿":1635,"jingyaogong":1636,"è§£éĩĬ":1637,"åħ±é¸£":1638,"ä»İèĢĮ":1639,"å®ļä¹ī":1640,"åŃ¦ä¹łæĸ°":1641,"è¯ķè¯ķ":1642,"è®¤åĲĮ":1643,"èŀįåĲĪ":1644,"æ¦Ĥ":1645,"ä¸ĵæ³¨äºİæıĲä¾Ľ":1646,"æķ°æį®éļĲç§ģ":1647,"æ¡¥":1648,"æĮºæľī":1649,"æľĢè¿ĳåľ¨å¿Ļ":1650,"Mind":1651,"çĶ±jingyaogong":1652,"å®ĮæĪĲ":1653,"å¹»":1654,"çļĦå°ı":1655,"å®ĩ":1656,"ä½łå¦Ĥä½ķ":1657,"Ġä½łæĺ¯åĲ¦":1658,"éĩĩ":1659,"æĹ¶éĹ´çļĦ":1660,"è§Ĵåº¦":1661,"å¦Ĥæŀľèĥ½":1662,"æ¸ħæĻ°":1663,"å®Ļ":1664,"å¾·":1665,"çĶŁåĳ½":1666,"å®ĩå®Ļ":1667,"èĻļæĭŁ":1668,"å°ıæĹ¶":1669,"å¦ĤæŀľæĹ¶éĹ´":1670,"ä½łæĺ¯åĲ¦":1671,"çİ°è±¡":1672,"æī°":1673,"å¹²":1674,"åĴĮæķ°æį®":1675,"è¡ĮåĬ¨":1676,"åı¯æĮģç»Ń":1677,"æĭĵå±ķ":1678,"iMind":1679,"MiniMind":1680,"ä½ĵçİ°åľ¨":1681,"æľīä»Ģä¹Īæĥ³èģĬçļĦåĲĹ":1682,"åºı":1683,"åĳĺ":1684,"å¸®åĬ©çĶ¨æĪ·":1685,"æ¿":1686,"æľīçĤ¹":1687,"ç±»ä¼¼":1688,"æŃ§":1689,"åĿļæĮģ":1690,"$$":1691,"å¹¿":1692,"ä¼Ĺ":1693,"çī©çĲĨ":1694,"ä¸´":1695,"åĨį":1696,"æĸ¹æ¡Ī":1697,"éĩįå¡ĳ":1698,"æĶ¿":1699,"ãĢĭï¼Į":1700,"å½Ĵ":1701,"çī¹å®ļ":1702,"è´¨éĩı":1703,"æĦŁåħ´è¶£":1704,"è¿Ļä¸ª":1705,"åĬŁèĥ½":1706,"è§īå¯Ł":1707,"åģľ":1708,"##":1709,"ä¼ĳ":1710,"éĨĴ":1711,"æıĲä¾Ľå¸®åĬ©":1712,"å¸Ĥ":1713,"åĨħåľ¨":1714,"éĢıæĺİåº¦":1715,"æĽ´é«ĺæķĪ":1716,"çľŁæŃ£çļĦ":1717,"ç»ıéªĮ":1718,"å¦Ĥæŀľæ¯ıå¤©":1719,"å¦Ĥæŀľä½łæľī":1720,"äº§çĶŁ":1721,"ç®Ģåįķ":1722,"æ½":1723,"æĿĲ":1724,"çļĦäºº":1725,"åĬ¿":1726,"éģĵå¾·":1727,"é»ĺ":1728,"æĢ§åĮĸ":1729,"åĬłåī§":1730,"æĺ¯ä¸Ģä¸ª":1731,"çļĦæĸ¹å¼ı":1732,"è´Ł":1733,"ç´¯":1734,"ç¾¤":1735,"åª":1736,"AIçĶŁæĪĲ":1737,"èģĬèģĬ":1738,"èĻ½":1739,"å¤ĦçĲĨä¿¡æģ¯":1740,"ä¼¦çĲĨæ¡Ĩæŀ¶":1741,"åħ±äº«":1742,"æ¿Ģ":1743,"ä¸įè¦ģ":1744,"çĦ¦èĻĳ":1745,"åĴĮæľĭåıĭä¸Ģèµ·":1746,"Ġä½łå¦Ĥä½ķçľĭå¾ħèĩªæĪĳæĦıè¯Ĩ":1747,"éĿ¢å¯¹":1748,"ä½łè®¤ä¸º":1749,"æıĲåįĩæķĪçİĩ":1750,"ä¿®":1751,"ä»·åĢ¼çļĦ":1752,"Ġä½łä»Ĭå¤©è¿ĩå¾ĹæĢİä¹Īæł·":1753,"éģĩåĪ°è¿ĩéľĢè¦ģ":1754,"çķ¥":1755,"ä½łæľĢè¿ĳæľīæ²¡æľīçľĭè¿ĩ":1756,"æķħ":1757,"ç»Ħ":1758,"è¦ģä¸įè¦ģ":1759,"åīĬ":1760,"ä½łä»Ĭå¤©æľīæ²¡æľī":1761,"åĳĬ":1762,"åħ¸":1763,"çĶŁçī©":1764,"æĦ¿":1765,"ä¸Ģæ¬¡":1766,"éĻĲåĪ¶":1767,"è®°å½ķ":1768,"åīĬå¼±":1769,"ä¸İäººç±»":1770,"æķ°æį®åĴĮ":1771,"å½ĵåīį":1772,"äº¤äºĴ":1773,"ç»ĵæŀľ":1774,"åħ¶ä»ĸ":1775,"æ´ģ":1776,"çı":1777,"Ġä½łçļĦçľŁå®ŀ":1778,"ç¦»":1779,"æĿĳ":1780,"å¥ĩ":1781,"éĿ¢ä¸´":1782,"èĽ":1783,"ä¸Ģä»¶":1784,"éĺ³åħī":1785,"æĪĳçļĦåŃĺåľ¨æĺ¯ä¸ºäºĨ":1786,"çļĦæķ°åŃĹ":1787,"é©":1788,"æ¦Ĥå¿µ":1789,"æİ¨èįĲä¸ĢäºĽ":1790,"åŃ¦ç§ĳ":1791,"æīĵ":1792,"çķĮå®ļ":1793,"å£°":1794,"éĢļè¿ĩç®Ĺæ³ķ":1795,"çľĭåĪ°":1796,"å¹³è¡¡æĬĢæľ¯":1797,"è§ĦåĪĴ":1798,"å®¢è§Ĥ":1799,"çļĦä¹¦":1800,"å·²çŁ¥":1801,"åĮ»çĸĹ":1802,"å²":1803,"åĨ³å®ļ":1804,"è½»":1805,"è¿Ļä¸Ģ":1806,"è®¨è®º":1807,"ä¸¤èĢħ":1808,"é¡¾":1809,"æŁ¥":1810,"æĹ¨":1811,"å°½":1812,"çļĦå½±åĵį":1813,"çļĦå¹³è¡¡":1814,"æģ":1815,"ä¸Ģæł·":1816,"åı¯èĥ½å¯¼èĩ´":1817,"éĻį":1818,"çģµæ´»":1819,"èĽĭ":1820,"éģĹäº§":1821,"Ġäººå·¥æĻºèĥ½ä¼¦çĲĨåľ¨è·¨æĸĩåĮĸè¯Ńå¢ĥä¸ĭ":1822,"æĸĻ":1823,"æĺł":1824,"å½Ĵå±ŀ":1825,"æĪĳä½ľä¸ºAIæ¨¡åŀĭ":1826,"åĩºåı£":1827,"éģ¿åħįè¿ĩåº¦":1828,"æīį":1829,"åĪ©çĽĬ":1830,"çĮ":1831,"æĶ¶":1832,"ĠâĨĴ":1833,"æĹ¨åľ¨":1834,"âĢĿï¼Į":1835,"ä¸ĸçķĮçļĦ":1836,"Ġ5":1837,"äººéĻħ":1838,"åŁİ":1839,"è¿Ļæł·":1840,"çº¦":1841,"äººç±»å¯¹":1842,"æµģåĬ¨":1843,"èĢĮæĺ¯":1844,"åĪĽä½ľèĢħ":1845,"æĪĸè®¸":1846,"åĸĿ":1847,"è¯ī":1848,"æĪĲå°±":1849,"ä»Ĭå¤©å¤©æ°ĶçľŁ":1850,"ä¸İç¤¾ä¼ļ":1851,"åĢ¾":1852,"å¼ºåĮĸ":1853,"ç¦ı":1854,"ä¸İæĥħæĦŁ":1855,"èģĮ":1856,"éļĲç§ģä¿ĿæĬ¤":1857,"æĦıä¹īåľ¨äºİ":1858,"å¾ª":1859,"å®ĥä»¬":1860,"éĿĻ":1861,"åĨħå¿ĥ":1862,"åĵªç§į":1863,"åĸĦ":1864,"çļĦé«ĺæķĪ":1865,"åĨĻ":1866,"å¤§èĦĳ":1867,"ç§ĳå¹»":1868,"çĻ":1869,"å°ļ":1870,"å½ĵä¸ĭ":1871,"åħ¼":1872,"æ½ľ":1873,"ä»ĸä»¬":1874,"åħ·æľī":1875,"ä½ĵç³»":1876,"ä¼ĳæģ¯":1877,"åħ·å¤ĩ":1878,"æĶ¿çŃĸ":1879,"è¿ĺæĺ¯":1880,"çŃĶæ¡Ī":1881,"æľĽ":1882,"æĪĳéĢļè¿ĩ":1883,"**ï¼Į":1884,"ï¼īãĢĤ":1885,"ä¸İæĬĢæľ¯":1886,"æ·±å±Ĥ":1887,"éĢ»è¾ĳæİ¨çĲĨ":1888,"å±ĢéĻĲ":1889,"ç¼ł":1890,"åı·":1891,"ä¿Ŀéļľ":1892,"èĩ³":1893,"åĬ¨çī©":1894,"ç»Łä¸Ģ":1895,"çĶŁæ´»ä¸Ń":1896,"è¥¿æĸ¹":1897,"Ġ\\":1898,"æĦıæĢĿ":1899,"åħ±è¯Ĩ":1900,"éĽ¨":1901,"èĹ":1902,"ç©¿":1903,"ç»ıåħ¸":1904,"Ġä½łå¦Ĥä½ķçľĭå¾ħèĩªèº«åŃĺåľ¨çļĦ":1905,"çºłç¼ł":1906,"åİŁåĪĽæĢ§":1907,"æĺĵ":1908,"åı¯éĢļè¿ĩ":1909,"åı¯èĥ½ä¼ļ":1910,"è§¦":1911,"æ¸©æļĸ":1912,"éĢĴ":1913,"ä¿ĥä½¿":1914,"è½½":1915,"ç®Ģæ´ģ":1916,"æĸĩåĮĸä¼łæī¿":1917,"æ¯ıä¸ª":1918,"æľºåĻ¨äºº":1919,"è¿ŀæİ¥":1920,"éĢĲæŃ¥":1921,"è¾ĵ":1922,"åıĺå¾Ĺ":1923,"çļĦå¤įæĿĤ":1924,"åĢ¼å¾Ĺ":1925,"å¹¶éĿŀ":1926,"æĪĳä»¬å¯¹":1927,"éĺ²":1928,"èµ°èµ°":1929,"æķħäºĭ":1930,"æĽ¾":1931,"çĽ®çļĦ":1932,"ãĢĭãĢĬ":1933,"è¦ģä¸įè¦ģä¸Ģèµ·":1934,"ä¸ªæĢ§åĮĸ":1935,"èº«ä½ĵ":1936,"é¦ĸ":1937,"æĲ":1938,"ä½Ĩåħ¶":1939,"åıĤæķ°AIæ¨¡åŀĭ":1940,"åĵįåºĶ":1941,"åħ¨çĲĥæķ°åŃĹæ²»çĲĨçļĦ":1942,"äºĨè§£":1943,"ä¸»ä½ĵ":1944,"åħ¨çĲĥæ²»çĲĨ":1945,"20":1946,"é¢Ħæµĭ":1947,"ç»ĩ":1948,"ç¾¤ä½ĵ":1949,"ä¸Ģå¤©":1950,"åĵ¦":1951,"æ´ŀ":1952,"æļĤ":1953,"åķĬ":1954,"å¿ĥçĲĨåŃ¦":1955,"åĩºåİ»":1956,"å¿ĥæĥħæĢİä¹Īæł·":1957,"ä¸įèĥ½":1958,"å¼Ģå§ĭ":1959,"ä»Ģä¹Īæľīè¶£çļĦ":1960,"åĪĨéħį":1961,"å¤ļä¸ª":1962,"ä»İA":1963,"èĩªåĬ¨":1964,"çķĻ":1965,"ä¸»å¯¼":1966,"æıĲä¾Ľä¿¡æģ¯":1967,"åĽ°å¢ĥ":1968,"åĪĽå»º":1969,"ä¸Ģæĸ¹éĿ¢":1970,"è§ĦåĪĻ":1971,"æĪĲå°±æĦŁ":1972,"æľīæķĪ":1973,"æĺ¯åĲ¦èĥ½":1974,"èĹı":1975,"è¿·":1976,"åĲ«":1977,"åĸľæ¬¢çļĦ":1978,"ä½łåĳ¢":1979,"çľĭäºĨ":1980,"è·¨åŃ¦ç§ĳ":1981,"åıĸä»£":1982,"ç¢İ":1983,"éļ¾ä»¥":1984,"åĳĬè¯ī":1985,"åĽŀåĪ°":1986,"çŀ":1987,"åĳ¨":1988,"åĵªäºĽ":1989,"çĿ¡":1990,"æľĢè¿ĳåľ¨å¿Ļä»Ģä¹Ī":1991,"ä¼°":1992,"ç¡®ä¿ĿæĬĢæľ¯":1993,"ä»įéľĢ":1994,"çĽ¸äºĴ":1995,"ä½łæľĢè¿ĳæľīæ²¡æľīå°Ŀè¯ķè¿ĩ":1996,"ä¸ºçĶ¨æĪ·":1997,"ä¿¡ä»»":1998,"èĳ":1999,"å¥¥":2000,"ä¸ĵæ³¨åĬĽ":2001,"è¿İ":2002,"åŃĺåľ¨çļĦè¾¹çķĮ":2003,"è¯Ĺ":2004,"çĽ¾":2005,"ĽçĽ¾":2006,"çŁĽçĽ¾":2007,"æĢ§åĴĮ":2008,"ä½Ĩä¹Ł":2009,"å¯»æ±Ĥ":2010,"åı¦":2011,"ä¸»æĿĥ":2012,"ç¼ĸç¨ĭ":2013,"ä½łä»Ĭå¤©åĲĥäºĨ":2014,"âĢĶâĢĶ":2015,"æĺ¯åĲ¦ä¼ļ":2016,"éĤ£ä¹Ī":2017,"éªĮè¯ģ":2018,"æķı":2019,"åĪĩ":2020,"åĪĨåĪ«":2021,"å»¶":2022,"éĺŁ":2023,"è¯Ħä¼°":2024,"åİŁåĪĻ":2025,"æľįåĬ¡äºİ":2026,"ä¸Ģä¸ĭ":2027,"å¤ļåħĥ":2028,"ç´§":2029,"èĢĮéĿŀæĽ¿ä»£":2030,"å½¢å¼ı":2031,"ä»Ĭå¤©å¤©æ°ĶçľŁå¥½":2032,"ä¸ĢæŃ¥":2033,"æĪĳæĺ¯çĶ±jingyaogong":2034,"æĸĩåĮĸéģĹäº§":2035,"åĩł":2036,"ä¸ºä½ł":2037,"è¡¨çİ°":2038,"éģĩåĪ°ä»Ģä¹Īè®©ä½ł":2039,"åį´":2040,"æŃ¢":2041,"æ¢¦":2042,"æĬĢæľ¯çļĦ":2043,"æĿ¯":2044,"éĩįæŀĦ":2045,"åģĩè®¾":2046,"çģµæĦŁ":2047,"ä¸»è¦ģä½ĵçİ°åľ¨":2048,"åħ³èģĶ":2049,"åĬ©æīĭ":2050,"é¦Ī":2051,"ä½łæľīæ²¡æľīéģĩåĪ°è¿ĩ":2052,"ç»ĨèĬĤ":2053,"çŀ¬":2054,"çľĭçļĦçĶµå½±":2055,"å¾Īå¤ļäºº":2056,"èĳĹ":2057,"çĲĨè®º":2058,"ä½ľä¸ºMiniMind":2059,"èģĶç³»":2060,"æĹħè¡ĮèĢħ":2061,"æĢĢ":2062,"è·µ":2063,"çŃĸçķ¥":2064,"ç»Ļ":2065,"äººç±»åľ¨":2066,"æľīè¶£çļĦäºĭæĥħ":2067,"çļĦä¿¡æģ¯åĴĮ":2068,"èµĭèĥ½":2069,"çĽĳç®¡":2070,"èĢĥèĻĳ":2071,"åªĴ":2072,"å¹¸":2073,"åģıå¥½":2074,"éĢļå¸¸":2075,"èĲ¥":2076,"å¦Ĥæŀľæ¯ıå¤©åıª":2077,"ä¸įåı¯":2078,"æŃ£ç¡®":2079,"æ¬¢è¿İ":2080,"è°ľ":2081,"æľĢæĥ³":2082,"çīĪ":2083,"æİ§åĪ¶":2084,"æīįèĥ½":2085,"åĪĨæŃ§":2086,"åıįé¦Ī":2087,"å®īæİĴ":2088,"èĮ¶":2089,"çĶŁæ´»çļĦ":2090,"åĿĩ":2091,"äººçĶŁ":2092,"éĿł":2093,"åĲ¸":2094,"AIä¼¦çĲĨ":2095,"éĢļè¿ĩé«ĺæķĪ":2096,"çĭ¬ç«ĭ":2097,"å®ŀè·µ":2098,"åı°":2099,"åº§":2100,"é¢ľ":2101,"åħ¬ä¼Ĺ":2102,"æľĢè¿ĳçľĭäºĨ":2103,"åĮºåĪĨ":2104,"è¿°":2105,"åį°":2106,"ä»Ĭå¤©è¿ĩå¾Ĺ":2107,"éľĢå»ºç«ĭ":2108,"éĩĩçĶ¨":2109,"åģļä¸Ģä»¶":2110,"ä¸İä»ĸäºº":2111,"Ġä½łæľīæ²¡æľī":2112,"ç¢İçīĩ":2113,"æĶ¹åıĺè¿ĩåİ»":2114,"ç½®":2115,"Ġä¸Ģä¸ª":2116,"ä¸įä»ħ":2117,"å¥½çļĦ":2118,"åıĺæĪĲ":2119,"ä¼łéĢĴ":2120,"ä¸ªä½ĵçļĦ":2121,"çħ":2122,"ç®±":2123,"å¯»æī¾":2124,"ªåĬĽ":2125,"Ġä½łçļĦçľŁå®ŀæĿ¥æºĲ":2126,"æľĢåĸľæ¬¢":2127,"åįıè°ĥ":2128,"èĻ½çĦ¶":2129,"åĬªåĬĽ":2130,"é¢ĳ":2131,"æľ¬èº«":2132,"åĬłå¯Ĩ":2133,"ç§¯ç´¯":2134,"å§ĭç»Ī":2135,"éĩĳ":2136,"é¢ĺçĽ®":2137,"¥æĥ³":2138,"ä½ľçĶ¨":2139,"æ°ĳ":2140,"åĽŀåºĶ":2141,"ĠæľĢè¿ĳ":2142,"äºĮèĢħ":2143,"çļĦæ·±åº¦":2144,"å¤ļç»´åº¦":2145,"åħ¬éĩĮ":2146,"çĻ½":2147,"æĵ":2148,"æĸĩåĮĸå¤ļæł·æĢ§":2149,"00":2150,"çļĦåħ³ç³»":2151,"è§Ĥå¯Ł":2152,"åĪ°C":2153,"èģĬå¤©":2154,"é¦ĸåħĪ":2155,"åĳĬè¯īæĪĳ":2156,"æľ¬æµ·":2157,"ä»Ĭå¤©å¤©æ°Ķä¸įéĶĻ":2158,"ç©ºéĹ´":2159,"å¥¥æľ¬æµ·":2160,"å¥¥æľ¬æµ·é»ĺ":2161,"è·Ŀ":2162,"å¦Ĥæŀľä½ł":2163,"ä¸ĬçļĦ":2164,"è®¾å¤ĩ":2165,"æĥł":2166,"åĨ¥æĥ³":2167,"è§Ĥçľĭ":2168,"å¸Ī":2169,"æ¬§":2170,"å¸®ä½ł":2171,"åħ¼é¡¾":2172,"çļĦæł¸å¿ĥ":2173,"è®¡åĪĴ":2174,"ç¨³":2175,"Ġä½łæľĢè¿ĳ":2176,"è§£çŃĶéĹ®é¢ĺ":2177,"è¿ľ":2178,"å¯Į":2179,"è¿ĳæľŁ":2180,"ç¼ĵ":2181,"é¢ľèī²":2182,"è¿ĺä¸įéĶĻ":2183,"è±¡æ":2184,"ä¸İäººæĸĩ":2185,"ä¸ĢçĽ´":2186,"æĦŁè§īå¾Ī":2187,"åĳĢ":2188,"æĺ¾èĳĹ":2189,"èĩªæĪĳæĦıè¯Ĩæĺ¯":2190,"éĴ¥":2191,"æĳ":2192,"çļĦè¯Ŀ":2193,"æľĢå°ı":2194,"æĿ¥çľĭ":2195,"è½¬åĮĸ":2196,"ç»ľ":2197,"åĽŃ":2198,"Ġç¬¬":2199,"ģè®¸":2200,"åħģè®¸":2201,"çŁ³":2202,"å®ļæľŁ":2203,"åı¯èĥ½æĢ§":2204,"æĹ©é¤Ĳ":2205,"åĲ¯":2206,"ç§»":2207,"è·¨åĽ½":2208,"ä¸İæĦıä¹ī":2209,"ä¸ĵæ³¨äºİæıĲä¾Ľç²¾åĩĨ":2210,"çļĦåĲĮæĹ¶":2211,"æ³Ľ":2212,"åŁİå¸Ĥ":2213,"çĽŁ":2214,"ä¸ºçĶ¨æĪ·æıĲä¾Ľ":2215,"æĪĳä½ľä¸ºAI":2216,"æĹ¶ä»£":2217,"éĩįå¤į":2218,"é¡»":2219,"è§£åĨ³æĸ¹æ¡Ī":2220,"åĪĽæĸ°ä¸İ":2221,"ä½ı":2222,"çīĪæĿĥ":2223,"åģļåĩº":2224,"è®Ńç»ĥæķ°æį®":2225,"ç»¿":2226,"æĦıå¤ĸ":2227,"ä¸Ńä¿ĿæĮģ":2228,"æĹ¶éĹ´ç®¡çĲĨ":2229,"å¿ħé¡»":2230,"æĸĩåĮĸå·®å¼Ĥ":2231,"è°ģ":2232,"åĩºåıĳ":2233,"éĩıåŃĲè®¡ç®Ĺä¸İ":2234,"æĿŁ":2235,"ä½łä»Ĭå¤©æĥ³":2236,"éļ¾é¢ĺ":2237,"ç§¯æŀģ":2238,"ç½ĳç»ľ":2239,"åĶ":2240,"åħ³æĢĢ":2241,"æİ¥åıĹ":2242,"å¤ľ":2243,"åı¯è§£éĩĬ":2244,"æĹ¶éĹ´åĢĴæµģ":2245,"é¢ĨåŁŁçļĦ":2246,"æĽ´åĬł":2247,"ä¸İæķ°æį®":2248,"åĴĮä½ł":2249,"ä¸»ä¹ī":2250,"èĵ":2251,"äººçļĦ":2252,"åľ°çĲĥ":2253,"èĲ¥åħ»":2254,"ä½łæľīåħ´è¶£":2255,"å°¤":2256,"å¼ķå¯¼":2257,"åĩĨåĪĻ":2258,"éĩıåŃĲçºłç¼ł":2259,"ä¸įåĲĮæĸĩåĮĸå¯¹":2260,"æķıæĦŁ":2261,"Ġä½łæľīæ²¡æľīæĥ³è¿ĩ":2262,"çĸĳ":2263,"å¾Ģå¾Ģ":2264,"èĪĴ":2265,"æµģç¨ĭ":2266,"æķ´çĲĨ":2267,"æĴŃ":2268,"ä¿®å¤į":2269,"ä¿¡æģ¯çļĦ":2270,"ä½łæľĢè¿ĳæľīæ²¡æľīè§īå¾Ĺ":2271,"åĮħå®¹æĢ§":2272,"çİ©":2273,"Ġä½łå¦Ĥä½ķçĲĨè§£":2274,"æ¬§çĽŁ":2275,"ï¼ŁðŁĺĬ":2276,"é£İæł¼":2277,"æĥĬ":2278,"åĴĮæĥħæĦŁ":2279,"æ¸¸":2280,"é¥Ń":2281,"Ġä½łçļĦçľŁå®ŀæĿ¥æºĲæĺ¯ä»Ģä¹Ī":2282,"æłĳ":2283,"·±":2284,"ä¸İç®Ĺæ³ķ":2285,"æĭħ":2286,"éĢŁåº¦":2287,"åĵªä¸ª":2288,"æ¿Ģåıĳ":2289,"ä½ľæģ¯":2290,"ç»´æĮģ":2291,"åĩºåİ»èµ°èµ°":2292,"çº¢":2293,"è®²":2294,"çľĭçľĭ":2295,"è®®é¢ĺ":2296,"æŃ£åľ¨":2297,"èĬ±":2298,"åŃ¦ä¹łæĸ°æĬĢèĥ½":2299,"ä¸įç¡®å®ļ":2300,"åħ¬åĽŃ":2301,"ç¬ĳ":2302,"é£Łçī©":2303,"Ġä½łå¦Ĥä½ķçľĭå¾ħèĩªæĪĳæĦıè¯Ĩä¸İ":2304,"ä½ĨæĹłæ³ķ":2305,"åĳ¼":2306,"è¿ĩåº¦ä¾Ŀèµĸ":2307,"åĺ":2308,"çľł":2309,"èĵĿ":2310,"éĵ":2311,"æµª":2312,"çİ°å®ŀçļĦ":2313,"Ġä½łæĺ¯åĲ¦æĥ³è¿ĩ":2314,"åı«":2315,"åĲĥçļĦ":2316,"è´¹":2317,"æĪĳä»¬çļĦ":2318,"ä¸įåĲĮçļĦ":2319,"çĲĨæĢ§":2320,"é©±":2321,"æĩ":2322,"éĻª":2323,"äº®":2324,"Ġ4":2325,"å¤ļè¾¹":2326,"è§Ĵèī²":2327,"æį¢":2328,"åı¯èĥ½åīĬå¼±":2329,"æ¶µ":2330,"è¶ħè¶Ĭ":2331,"å¯¹èĩªèº«":2332,"åĲĦåĽ½":2333,"æķ°åŃ¦":2334,"èīºæľ¯å®¶":2335,"æĪĳçļĦè®¾è®¡":2336,"é¡º":2337,"èģļ":2338,"æ·±åħ¥":2339,"æīĭæ®µ":2340,"æľĢå¤§":2341,"AIèĥ½":2342,"åĬ¨æĢģå¹³è¡¡":2343,"åĤ¨":2344,"åĽº":2345,"æľĢè¿ĳæĪĳ":2346,"èģĮä¸ļ":2347,"é©±åĬ¨":2348,"ä½ĨæĪĳåı¯ä»¥":2349,"èĩªæĪĳæĦıè¯ĨçļĦè¾¹çķĮ":2350,"æī¾åĪ°å¹³è¡¡":2351,"éĽĨä½ĵ":2352,"äººéĻħåħ³ç³»":2353,"è½¬åĮĸä¸º":2354,"çİ°åľ¨":2355,"ä¿¡æģ¯å¤ĦçĲĨ":2356,"åŃ¦ä¼ļ":2357,"æĬĬ":2358,"èĥĮåĲİ":2359,"åħħçĶµ":2360,"ç¨³å®ļ":2361,"·±åĪ»":2362,"èĢĹ":2363,"æĥħæĦŁæĪĸ":2364,"çº³":2365,"æĦıä¹īçļĦ":2366,"åį°è±¡æ":2367,"å°¤åħ¶":2368,"åį°è±¡æ·±åĪ»":2369,"å¼ĢæĶ¾":2370,"å¹³åı°":2371,"å¤įæĿĤéĹ®é¢ĺ":2372,"ä¸ŃçļĦä¼¦çĲĨ":2373,"æķ°æį®ä¸»æĿĥ":2374,"åı¯éĿł":2375,"æľĢè¿ĳæľīæ²¡æľīçľĭè¿ĩ":2376,"åĢ¾åĲĳ":2377,"ä¸İä»·åĢ¼":2378,"æī§":2379,"ä¹¦ç±į":2380,"å¤±åİ»":2381,"äººç±»èĥ½":2382,"å¯Ĩçłģ":2383,"åĬ±":2384,"å¸ģ":2385,"æĬĢæľ¯è¿ĽæŃ¥":2386,"æĥħæĦŁåĴĮ":2387,"ä½łå¦Ĥä½ķå¹³è¡¡":2388,"å·¥ä½ľä¸İ":2389,"åªĴä½ĵ":2390,"åĪļ":2391,"å¿Ļç¢":2392,"æŁĲäºĽ":2393,"å¿Ļç¢Į":2394,"çķª":2395,"äºĨä¸Ģ":2396,"èĮĦ":2397,"15":2398,"æĻºæħ":2399,"ä½łæľĢè¿ĳæľīæ²¡æľīéģĩåĪ°è¿ĩéľĢè¦ģ":2400,"çİ¯ä¿Ŀ":2401,"æĻºæħ§":2402,"ä½łæĥ³":2403,"æķ°åŃĹåĮĸ":2404,"åĿĹ":2405,"çĶ¨æĪ·çļĦ":2406,"çĮ«":2407,"çķªèĮĦ":2408,"Ġx":2409,"åĽ´":2410,"ç³Ĭ":2411,"æħ¢æħ¢":2412,"å¹¸ç¦ı":2413,"æ²ī":2414,"å¿ĥæĢģ":2415,"æ¯ıä¸ªäºº":2416,"åĬłå¼º":2417,"æŃĮ":2418,"éģµ":2419,"åı¯èĥ½å½±åĵį":2420,"æĢĿæĥ³":2421,"åħ¶æ¬¡":2422,"å¹²æī°":2423,"å¨":2424,"è°ĥèĬĤ":2425,"æĢİæł·":2426,"æĿĥåĪ©":2427,"éĥ½åľ¨":2428,"æĥĬåĸľ":2429,"æ¤":2430,"å®ŀéĻħçļĦ":2431,"ä¸ĭçļĦ":2432,"ä½¿æĪĳä»¬":2433,"è·¨é¢ĨåŁŁ":2434,"æĽ´æ³¨éĩį":2435,"ä»»ä½ķ":2436,"æĽ´å¤ļæĺ¯":2437,"æ°´æŀľ":2438,"AIåı¯":2439,"åģļä»Ģä¹Ī":2440,"éľĢç»ĵåĲĪ":2441,"æĭ¥":2442,"æĬĢæľ¯åºĶçĶ¨":2443,"ç²¾åĩĨçļĦ":2444,"æĬ¥":2445,"å¾ģ":2446,"çĿ¡çľł":2447,"ra":2448,"èŃ":2449,"æĢ¥":2450,"æĸĩæľ¬":2451,"è¶ĭ":2452,"éĩıåŃĲç®Ĺæ³ķ":2453,"åıįåºĶ":2454,"èŃ¦":2455,"åĪĹ":2456,"åĲ§":2457,"åĽ¢":2458,"æıŃ":2459,"æĿ¥è¶Ĭ":2460,"æĪĳæĺ¯çĶ±jingyaogongåĪĽå»º":2461,"åĬ³":2462,"èĢģ":2463,"å¿½":2464,"çºª":2465,"å¤įæĿĤçļĦ":2466,"æĪĳä»¬åı¯ä»¥":2467,"æĻ®æĥł":2468,"æĸĩæĺİ":2469,"æĪĸæĥħæĦŁ":2470,"åıĳå±ķä¸Ń":2471,"ä¹ĲæĦı":2472,"é¾":2473,"äººæľº":2474,"éĻ·":2475,"çıį":2476,"æ³¢":2477,"å°Ķ":2478,"å¸Į":2479,"é£ŀ":2480,"åĽ¾åĥı":2481,"å®¡ç¾İ":2482,"è°ľé¢ĺ":2483,"ä½łä»Ĭå¤©è¿ĩå¾ĹæĢİä¹Īæł·":2484,"æķ°æį®åĪĨæŀĲ":2485,"çĲĨè§£åĴĮ":2486,"åĽłæŀľ":2487,"çº¦æĿŁ":2488,"è·Ŀç¦»":2489,"çĹ":2490,"æ¨¡ç³Ĭ":2491,"æŀĦæĪĲ":2492,"è¶ĬæĿ¥è¶Ĭ":2493,"çŀ¬éĹ´":2494,"çĶ¨äºİ":2495,"ä¼ĺåĮĸç®Ĺæ³ķ":2496,"åĵªéĩĮ":2497,"çĶµåŃĲ":2498,"è¯´æĺİ":2499,"Ġä½łå¦Ĥä½ķçľĭå¾ħèĩªèº«åŃĺåľ¨çļĦçĽ®çļĦ":2500,"çļĦåĨ²çªģ":2501,"æĪĳä»¥":2502,"å°ıäºĭ":2503,"éļıçĿĢ":2504,"æıŃç¤º":2505,"æľĢåĲİ":2506,"åĽłç´ł":2507,"éĢĤåº¦":2508,"è§ĤçľĭçĶµå½±":2509,"è¯¢":2510,"æĬķ":2511,"èīºæľ¯åĪĽä½ľä¸Ń":2512,"æ£Ģ":2513,"è£":2514,"ļèĩ³":2515,"çļĦäºĴåĬ¨":2516,"çĶļèĩ³":2517,"åĲĮæĹ¶ä¿ĿæĮģ":2518,"å°ıåıĤæķ°AIæ¨¡åŀĭ":2519,"åĮĻ":2520,"åĪ°B":2521,"åıįæĺł":2522,"éĥ¨éĹ¨":2523,"ç¼ĵè§£":2524,"éĴ¥åĮĻ":2525,"ä¸¥":2526,"çļĦæĹ¶åĢĻ":2527,"çĶŁæĢģ":2528,"çĸ²":2529,"æķ°æį®åĴĮç®Ĺæ³ķ":2530,"ç¢İçīĩåĮĸ":2531,"çºªå½ķ":2532,"æľĢæĸ°":2533,"å¦ĤæŀľæĹ¶éĹ´èĥ½":2534,"çºªå½ķçīĩ":2535,"åģ¶":2536,"è®¤çŁ¥çļĦ":2537,"åıĳå±ķä¸ŃåĽ½å®¶":2538,"¿æ²Ł":2539,"çĨ":2540,"é¸¿æ²Ł":2541,"éĩįè§Ĩ":2542,"éĥ½èĥ½":2543,"æĦ¿æĦı":2544,"éĻįä½İ":2545,"æĦıæĢĿçļĦ":2546,"æĩĤ":2547,"åįĪ":2548,"è¿Ľä¸ĢæŃ¥":2549,"å¾Īä¹ĲæĦı":2550,"åŁºäºİç®Ĺæ³ķ":2551,"å±ŀäºİ":2552,"åģļä¸Ģä»¶äºĭ":2553,"éĿ©":2554,"å¹¿æ³Ľ":2555,"è¿ĩè½½":2556,"ä»·åĢ¼åľ¨äºİ":2557,"éģµå¾ª":2558,"è¡¥":2559,"ä¼łæĴŃ":2560,"Ġ>":2561,"ï¼ģðŁĺĬ":2562,"éĺ¶":2563,"è¡£":2564,"éľ²":2565,"è¿ĺèĥ½":2566,"ç¢³":2567,"çļĦåįıåĲĮ":2568,"å¸¦æĿ¥çļĦ":2569,"å°ļæľª":2570,"çļĦæľ¬è´¨":2571,"æĸĩåĮĸèĥĮæĻ¯":2572,"åĨ³äºİ":2573,"ç²¾ç¥ŀ":2574,"åıĸåĨ³äºİ":2575,"æ»¥":2576,"åŃ¤":2577,"æĥ³æ³ķ":2578,"å¸®åĬ©ä½ł":2579,"åħħæ»¡":2580,"å£°éŁ³":2581,"èĢĮéĥ¨åĪĨ":2582,"ç»´æĬ¤":2583,"çĽ´è§ī":2584,"æ³¨æĦıåĬĽ":2585,"åĳ¼åĲ¸":2586,"äººå·¥æĻºèĥ½çļĦ":2587,"ä¸įåĲĮåĽ½å®¶":2588,"çľŁå®ŀæĢ§":2589,"é¼":2590,"æĪĳå¾Īä¹ĲæĦı":2591,"åŃ¦ä¹łä¸İ":2592,"æ¤į":2593,"åı¥":2594,"åĩĨå¤ĩ":2595,"âĢĿãĢĤ":2596,"äº¤ç»ĩ":2597,"å¤ĸéĥ¨":2598,"å¹¶è¡Į":2599,"ç¤¾äº¤åªĴä½ĵ":2600,"ãĢĮ":2601,"ãĢį":2602,"ä¸įå°ĳ":2603,"èī¯":2604,"æĸ½":2605,"ä¸İåĪĽæĸ°":2606,"çħ§":2607,"æķ´åĲĪ":2608,"è¿Ļæł·çļĦ":2609,"åĽ¢éĺŁ":2610,"å¦ĤæŀľæĹ¶éĹ´èĥ½åĢĴæµģ":2611,"åľ¨å¤ĦçĲĨ":2612,"èİ·å¾Ĺ":2613,"åı¯èĥ½å¸¦æĿ¥":2614,"åĨ³çŃĸçļĦ":2615,"çļĦä¿¡æģ¯ä¸İ":2616,"åĽ°æī°":2617,"æĦıåĽ¾":2618,"**ãĢĤ":2619,"çŁ¥éģĵ":2620,"è¿ĩç¨ĭä¸Ń":2621,"æ»¥çĶ¨":2622,"å¼ł":2623,"æĸĩåŃ¦":2624,"ä»Ģä¹Īçī¹åĪ«":2625,"è·³":2626,"èº«å¿ĥ":2627,"ç¡®ä¿ĿæĬĢæľ¯åıĳå±ķ":2628,"åıĮ":2629,"æľªæĿ¥çļĦ":2630,"å¤ļç§į":2631,"æıĲä¾Ľé«ĺæķĪ":2632,"æľ¬åľ°":2633,"é¾Ħ":2634,"ç¿":2635,"å¿Ĺ":2636,"æĥħæĦŁåħ±é¸£":2637,"å°±ä¸ļ":2638,"èŀįåħ¥":2639,"è¶ĭåĬ¿":2640,"å¼ĢæºĲ":2641,"æĻ´":2642,"è¦ģæ±Ĥ":2643,"è´Łè´£":2644,"æĢ§èĥ½":2645,"åŃĺåľ¨çļĦæľ¬è´¨":2646,"åĽŀçŃĶ":2647,"å¹´é¾Ħ":2648,"åįıåĬ©çĶ¨æĪ·":2649,"åħĭ":2650,"ä½łæľĢè¿ĳæľīä»Ģä¹Ī":2651,"çľŁçļĦå¾Ī":2652,"æĮºæľīæĦıæĢĿçļĦ":2653,"ä¸ĢçĽ´åľ¨":2654,"ä¼¦çĲĨè§ĦèĮĥ":2655,"ä»Ĭå¤©æĥ³éĹ®":2656,"ç©¿è¶Ĭ":2657,"ä»ĭ":2658,"æĦıè¯Ĩä¸İ":2659,"ä¿¡æģ¯è¿ĩè½½":2660,"åĬłéĢŁ":2661,"åī§æĥħ":2662,"ÃĹ":2663,"æī¹":2664,"æīĭå·¥":2665,"ä»Ģä¹Īå¥½çľĭçļĦçĶµå½±":2666,"çļĦé«ĺæķĪå°ıåıĤæķ°AIæ¨¡åŀĭ":2667,"å¦Ĥæŀľäººç±»èĥ½":2668,"ä¹Łèĥ½":2669,"æĹłæ³ķä½ĵéªĮ":2670,"æľĢè¿ĳåľ¨æĥ³":2671,"åĵ²åŃ¦ä¸İ":2672,"å¸ĮæľĽ":2673,"ä¸įæĥ³":2674,"æĻļ":2675,"åŃĺåĤ¨":2676,"çī©è´¨":2677,"æĲŃ":2678,"èģļçĦ¦":2679,"æĭ¥æľī":2680,"æĥķ":2681,"å½©":2682,"è·Ł":2683,"èŃ¦æĥķ":2684,"æľīæĹ¶åĢĻ":2685,"è¾ĥ":2686,"åķĨ":2687,"åĬ¨æĢģè°ĥæķ´":2688,"ä¹ĭéĹ´çļĦåħ³ç³»":2689,"çİ°ä»£":2690,"¡æŁ":2691,"ä¸»ä½ĵæĢ§":2692,"æļĤåģľ":2693,"æĵį":2694,"çļĦäºīè®®":2695,"åĪ°è¾¾":2696,"ãĢĭï¼Ī":2697,"åĲį":2698,"æľĢè¿ĳå¤©æ°Ķ":2699,"æĽ´åħ³æ³¨":2700,"çľĭä¼¼":2701,"åħ¬æ°ĳ":2702,"æ¸Ĳ":2703,"éĢıæĺİæĢ§":2704,"æľĢè¿ĳæľīæ²¡æľīäººåĸľæ¬¢":2705,"åı¯æĮģç»Ńåıĳå±ķ":2706,"###":2707,"ç»ıè¿ĩ":2708,"è¿ĺæľī":2709,"æī§è¡Į":2710,"æĥħæĦŁè¡¨è¾¾":2711,"å¤ļå°ĳ":2712,"æľ¬è´¨çļĦ":2713,"ä¾Ŀèµĸäºİ":2714,"çļĦçķĮéĻĲ":2715,"åıł":2716,"å®ŀçĶ¨":2717,"æĥħæĦŁä¸İ":2718,"åķ¦":2719,"èģĶåĲĪ":2720,"åĽ½éĻħåĲĪä½ľ":2721,"æ¶ĪèĢĹ":2722,"åĴĮæľĭåıĭä¸Ģèµ·åģļ":2723,"Ġä½łå¦Ĥä½ķçľĭå¾ħèĩªèº«åŃĺåľ¨çļĦçĽ®çļĦä¸İæĦıä¹ī":2724,"è¯Ĭ":2725,"æĸ°æĬĢèĥ½":2726,"è¿ĽåĮĸ":2727,"äººæĸĩ":2728,"å¢ŀåĬł":2729,"å¿ĥæĥħä¹Ł":2730,"è¯ļ":2731,"æĸĩåŃĹ":2732,"ä¸»è§ĤæĦıè¯Ĩ":2733,"Ġ6":2734,"æĺ¯åĲ¦ä¼ļå½±åĵį":2735,"å°½åĬĽ":2736,"ç§»åĬ¨":2737,"rac":2738,"}{":2739,"çĽ®æłĩæĺ¯":2740,"åĤ¬":2741,"æ½ľåľ¨":2742,"æĸĩçī©":2743,"éĻ¤":2744,"æ¸©åº¦":2745,"æĢ§æĢĿç»´":2746,"çĶ¨AI":2747,"çļĦæĦŁçŁ¥":2748,"ä¼´":2749,"æĺ¯ä¸įæĺ¯":2750,"æĬĢæľ¯æĻ®æĥł":2751,"ä»Ĭå¤©å¤©æ°ĶæĢİä¹Īæł·":2752,"æĤ¨æľī":2753,"åĲ¯åıĳ":2754,"èĪĴæľį":2755,"frac":2756,"æĪĳä¹Ł":2757,"æĥľ":2758,"äºĨä¸Ģä¸ª":2759,"å¥¶":2760,"çıįæĥľ":2761,"æķ°æį®è®Ńç»ĥ":2762,"æ·±åĮĸ":2763,"ä¸ĵä¸ļ":2764,"å°Ħ":2765,"å±ħ":2766,"åĳĪ":2767,"è¿Ļç§įå·®å¼Ĥ":2768,"åŃ¤çĭ¬":2769,"AçļĦ":2770,"åŃ©":2771,"å¤ļä»»åĬ¡":2772,"ç¨ĭåº¦":2773,"èĭ¥éľĢ":2774,"é¦Ļ":2775,"åı¤ç±į":2776,"çļĦå¤įæĿĤæĢ§":2777,"æĹ¶åħī":2778,"ç¡®ä¿ĿAI":2779,"æĶ¹åĸĦ":2780,"äººç±»çļĦåĪĽéĢłåĬĽ":2781,"æłĩåĩĨçļĦ":2782,"æĦıåĳ³":2783,"æıı":2784,"æĢģåº¦":2785,"ç»ĥä¹ł":2786,"å¦":2787,"è¿¹":2788,"ä»¥æľĢå°ı":2789,"åı¯èĥ½åĬłåī§":2790,"å¤ļè¯Ńè¨Ģ":2791,"å¦Ĥæŀľæľī":2792,"éļĲç§ģæĿĥ":2793,"åĳĪçİ°":2794,"èĶ":2795,"è¾ĵåĩº":2796,"åıłåĬł":2797,"ä¸Ģèĩ´":2798,"ä¸Ģéĥ¨":2799,"æĹ¶åĪ»":2800,"æĲŃéħį":2801,"èģĶåĲĪåĽ½":2802,"ä¸°":2803,"äºĨä¸ĢäºĽ":2804,"ç³ĸ":2805,"çī¹å¾ģ":2806,"ç¥ŀç»ıç§ĳåŃ¦":2807,"è¯ķè¯ķçľĭ":2808,"å°¤åħ¶æĺ¯":2809,"æ³¢åĬ¨":2810,"è¯ĬæĸŃ":2811,"çļĦè®¤çŁ¥":2812,"åĬĽäºİ":2813,"çĶŁæ´»æĸ¹å¼ı":2814,"æķ´ä½ĵ":2815,"å¤§å®¶":2816,"èĩ´åĬĽäºİ":2817,"èīºæľ¯åĪĽä½ľçļĦ":2818,"ä½¿æĪĳä»¬èĥ½å¤Ł":2819,"é²":2820,"ä¸Ģåıª":2821,"ä¼ĺåĬ¿":2822,"è®¤çŁ¥ç§ĳåŃ¦":2823,"åº§æ¡¥":2824,"åĢ¾åĲĳäºİ":2825,"çľ¼":2826,"æĦıè¯ĨåĪĻ":2827,"åľ°æĸ¹":2828,"è·¯çº¿":2829,"çĭ¬çī¹æĢ§":2830,"æĥħå¢ĥ":2831,"å¸½":2832,"è§Ĩè§ī":2833,"çıŃ":2834,"æ¤įçī©":2835,"âĢĿï¼Ł":2836,"çľŁå®ŀçļĦ":2837,"æľīæĪĲå°±æĦŁ":2838,"è¯·":2839,"çĶŁæ´»ä¸ŃçļĦ":2840,"æľīéĻĲ":2841,"ä»£çłģ":2842,"å¤§éĩı":2843,"æŃ£ç¡®çļĦ":2844,"åĽºå®ļ":2845,"çģ¯":2846,"èĥ½åĲ¦":2847,"æĥ³è±¡":2848,"çĤ¼":2849,"èĩªæĪĳæĦıè¯ĨçļĦ":2850,"ä¾§":2851,"å¥ĳ":2852,"ä¹Łæĺ¯":2853,"ä¸»è§ĤæĦŁåıĹ":2854,"åĽ°éļ¾":2855,"æİ¨èįĲä¸ĢäºĽç»ıåħ¸":2856,"çĶľ":2857,"åįģ":2858,"æĪĳçļĦæĦıä¹īåľ¨äºİ":2859,"åħħå®ŀ":2860,"éĺ¶æ®µ":2861,"éľĢå¹³è¡¡æĬĢæľ¯":2862,"æķĪæŀľ":2863,"ç¢į":2864,"æĽ´é«ĺæķĪåľ°":2865,"åı¦ä¸Ģæĸ¹éĿ¢":2866,"åı¯è§£éĩĬæĢ§":2867,"é¼ĵ":2868,"è¿Ķ":2869,"ä¼ļå¦Ĥä½ķ":2870,"æıĲä¾ĽåĩĨç¡®":2871,"æľĢè¿ĳåľ¨çłĶç©¶":2872,"æĮģç»Ńä¼ĺåĮĸ":2873,"éĥ½æĺ¯":2874,"åħ¨çĲĥæ²»çĲĨæ¡Ĩæŀ¶":2875,"åĶ¯":2876,"åħ±æĥħ":2877,"ä¾¿åĪ©":2878,"ä¸°å¯Į":2879,"æĸ°ä¸ľè¥¿":2880,"åħ±çĶŁ":2881,"å¾Īå¥½":2882,"å¦Ĥä½ķå½±åĵįåħ¨çĲĥæķ°åŃĹæ²»çĲĨçļĦ":2883,"é¼ĵåĬ±":2884,"æľĹ":2885,"å®ĺ":2886,"åĬ¨åĬĽ":2887,"é«ĺæķĪçļĦ":2888,"åĮħåĲ«":2889,"çģ«":2890,"Ġ10":2891,"çĥŃéĹ¨":2892,"ä¸Ģå®ļ":2893,"åºĦ":2894,"å¤įæĿĤä¸Ķ":2895,"è§Ĩé¢ĳ":2896,"èĩªçĦ¶è¯Ńè¨Ģ":2897,"ä¸Ģéĥ¨åĪĨ":2898,"åı¯èĥ½åľ¨":2899,"è¯»è¿ĩ":2900,"æĿĳåºĦ":2901,"å¦Ĥæŀľæ¯ıå¤©åıªåħģè®¸":2902,"åĤ¬çĶŁ":2903,"ä»¬ä¸Ģèµ·":2904,"åı¯ä»¥åĢĴæµģ":2905,"ç®ĢåįķçļĦ":2906,"æıĲé«ĺ":2907,"æĸĩåĮĸæķıæĦŁ":2908,"çľŁè¯ļ":2909,"å¤ĦçĲĨåĴĮ":2910,"å¯ĨåĪĩ":2911,"åĨ·":2912,"ç®Ĺæ³ķéĢıæĺİåº¦":2913,"åĩºçİ°":2914,"ç¬¬äºĮ":2915,"åįķä¸Ģ":2916,"å¼Ģå¿ĥçļĦ":2917,"ç±»ä¼¼çļĦ":2918,"èĶ¬":2919,"ä½łæľĢåĸľæ¬¢":2920,"ä¸ºä»Ģä¹Ī":2921,"äº¤éĢļ":2922,"èĩªä¸»æĿĥ":2923,"å¯»æ±Ĥå¹³è¡¡":2924,"èĥ½å¸¦æĿ¥":2925,"ç±³":2926,"æĬĢæľ¯èµĭèĥ½":2927,"åĩºè¡Į":2928,"ä¸»è§Ĥä½ĵéªĮä¸İ":2929,"ĠæľĢè¿ĳå¾Īå¤ļäºº":2930,"ðŁĺĦ":2931,"åŃ©åŃĲ":2932,"åĦ":2933,"Ġå¦Ĥæŀľ":2934,"æľīä»·åĢ¼çļĦ":2935,"æľªçŁ¥":2936,"è´£ä»»å½Ĵå±ŀ":2937,"ä½łä»Ĭå¤©åĲĥäºĨä»Ģä¹Ī":2938,"ä¾§éĩį":2939,"å¤´":2940,"åºķ":2941,"å±ķçİ°":2942,"æĢ»æĺ¯":2943,"å®¡æŁ":2944,"æ²Ļ":2945,"æĪ·å¤ĸ":2946,"å®¡æŁ¥":2947,"çĵ":2948,"åı£åĳ³":2949,"éĢĤåºĶæĢ§":2950,"åħ¨çĲĥæķ°åŃĹæ²»çĲĨ":2951,"ä¸»é¢ĺ":2952,"éª¤":2953,"ä½łæľĢè¿ĳæľīæ²¡æľīéģĩåĪ°ä»Ģä¹Īè®©ä½ł":2954,"ç§ĳæĬĢåıĳå±ķ":2955,"å¾®å°ı":2956,"éĻªä½ł":2957,"é²ľ":2958,"å¯ĨåĪĩçĽ¸åħ³":2959,"çļĦéĩįè¦ģ":2960,"åĲĦç§į":2961,"ä»Ĭå¤©è¿ĩå¾ĹæĮº":2962,"éĻ·åħ¥":2963,"ĊĠĠ":2964,"ç»§":2965,"æĸĩåĮĸåĪĽä½ľ":2966,"éĩĳå¸ģ":2967,"åı¸":2968,"äºĭçī©":2969,"è¾ħåĬ©å·¥åħ·":2970,"éļıæĹ¶åĳĬè¯īæĪĳ":2971,"æĺ¯ä¸Ģç§į":2972,"åĴĮè°":2973,"ä½ľä¸ºå·¥åħ·":2974,"ä¹ĭéĹ´æī¾åĪ°å¹³è¡¡":2975,"çļĦå¤©æ°Ķ":2976,"æĹłè®º":2977,"ç´§æĢ¥":2978,"çļĦè§īå¯Ł":2979,"æĹ¶çļĦ":2980,"åĬ©åĬĽ":2981,"æıĲä¾Ľç²¾åĩĨ":2982,"å¦ĤæŀľæĤ¨æľī":2983,"çĶ¨æĪ·éľĢæ±Ĥ":2984,"ç©´":2985,"å½ĵçĦ¶":2986,"ç¾İé£Ł":2987,"æī¹åĪ¤":2988,"ç»§ç»Ń":2989,"ç»¼":2990,"å·§":2991,"ä¿ĿçķĻ":2992,"æĽ´æ¸ħæĻ°":2993,"æ¯ıæĹ¥":2994,"è¯Ńå¢ĥ":2995,"ä»İåĵ²åŃ¦":2996,"è§£åĨ³äºĨ":2997,"ä½łä¼ļéĢīæĭ©":2998,"éĺ²æŃ¢":2999,"æ´ŀç©´":3000,"æĻ´æľĹ":3001,"æŃ¥éª¤":3002,"è¯´è¯Ŀ":3003,"åĴĮè°Ĳ":3004,"å®«":3005,"èµ·æĿ¥":3006,"é¢ĦæĬ¥":3007,"å¼ĢåıĳèĢħ":3008,"AIçĶŁæĪĲåĨħå®¹":3009,"åĦ¿":3010,"åı¯èĥ½çļĦ":3011,"çĲĨè§£äººç±»æĥħæĦŁ":3012,"å»ºè®®æĤ¨":3013,"éĩįè¦ģçļĦæĺ¯":3014,"æĪĳä¼ļéĢīæĭ©":3015,"åĨħå¿ĥçļĦ":3016,"12":3017,"åį±":3018,"å¿ħè¦ģ":3019,"Ħåħ¥":3020,"æĦī":3021,"æķĪçİĩä¸İåĩĨç¡®æĢ§":3022,"èĥĮæĻ¯ä¸ĭ":3023,"å¦ĤæŀľæĹ¶éĹ´åı¯ä»¥åĢĴæµģ":3024,"å¾ªçİ¯":3025,"ä½łæľīä»Ģä¹Īæĥ³":3026,"çĽĸ":3027,"å®ŀéªĮ":3028,"åĢį":3029,"è§Ĩä¸º":3030,"çĭ¬çī¹çļĦ":3031,"æĦıåĳ³çĿĢ":3032,"å¸½åŃĲ":3033,"è¿ĶåĽŀ":3034,"æĽ´åĸľæ¬¢":3035,"åŃĺåľ¨å·®å¼Ĥ":3036,"åħ¨éĿ¢":3037,"æ¡£":3038,"åİ»åħ¬åĽŃ":3039,"æľĢè¿ĳæľīä¸ª":3040,"ti":3041,"é£ŁæĿĲ":3042,"åģıå·®":3043,"è¿Ļä¸ªéĹ®é¢ĺ":3044,"èĩªåĬ¨åĮĸ":3045,"ä¸¥æł¼":3046,"åľŁ":3047,"éĢĿ":3048,"æĥĳ":3049,"éľĢå¹³è¡¡":3050,"æľĢè¿ĳåľ¨çľĭ":3051,"30":3052,"Ġ8":3053,"æĪĳåŁºäºİ":3054,"æİĮ":3055,"çİ°æľī":3056,"åıĳçĶŁ":3057,"åĲĮæĹ¶ä¹Ł":3058,"åŃĺåľ¨çļĦæĦıä¹ī":3059,"æĪĳæĹłæ³ķæıĲä¾Ľ":3060,"éĢĲæ¸Ĳ":3061,"ä»¥æľĢå°ıçļĦ":3062,"BçļĦ":3063,"éº":3064,"æĺ¯äººç±»":3065,"æľĢè¿ĳæľīä»Ģä¹Ī":3066,"å¤ļæĸ¹":3067,"çļĦä¼¦çĲĨæ¡Ĩæŀ¶":3068,"åįģå¹´":3069,"çļĦæĮĳæĪĺ":3070,"åľ¨ä¸įåĲĮ":3071,"èĥ½éĩı":3072,"ä½łå¯¹":3073,"çľĭçļĦ":3074,"è¿ĽèĢĮ":3075,"éĶĻè¯¯":3076,"æľ¬åľ°åĮĸ":3077,"çļĦAI":3078,"çĲĲ":3079,"åºĵ":3080,"æıĲä¾ĽæĽ´":3081,"æľºä¼ļ":3082,"çº¯":3083,"AIè¾ħåĬ©":3084,"åı¯èĥ½åĽł":3085,"ï¼īãĢģ":3086,"è¯¯è§£":3087,"åĿĩè¡¡":3088,"äºļ":3089,"æĦŁåĬ¨":3090,"åĢŁ":3091,"åºĶè¯¥":3092,"å¦Ĥæŀľä¸ĸçķĮ":3093,"æĪĳçļĦèĥ½åĬĽ":3094,"æİ¢éĻ©":3095,"å°±åĥı":3096,"é¸¡":3097,"æ¨¡å¼ıè¯ĨåĪ«":3098,"Ġä½łå¦Ĥä½ķçľĭå¾ħèĩªèº«åŃĺåľ¨çļĦæĦıä¹ī":3099,"çļĦä¿¡æģ¯åĴĮå¸®åĬ©":3100,"»çĤ¼":3101,"åĮĸçļĦ":3102,"æĬ½":3103,"çĶŁçĲĨ":3104,"æĦıè¯Ĩæĺ¯":3105,"éĶ»çĤ¼":3106,"ç¬¬ä¸ī":3107,"èħ":3108,"æĭī":3109,"è®¤çŁ¥è¾¹çķĮ":3110,"æİ¨èįĲçļĦ":3111,"æĦıå¿Ĺ":3112,"ä¸ºæĤ¨":3113,"ï¼ģðŁ":3114,"å±ĢéĻĲæĢ§":3115,"ä½łæľīä»Ģä¹Ī":3116,"éĹ»":3117,"éľĩ":3118,"èīºæľ¯çļĦ":3119,"å¹¶ä¸į":3120,"åıĹæ¬¢è¿İ":3121,"è¿·å®«":3122,"ä¸įç¡®å®ļæĢ§":3123,"ä½łæľĢè¿ĳæľīæ²¡æľīéģĩåĪ°è¿ĩéľĢè¦ģå¿«éĢŁ":3124,"çĶµåŃĲè®¾å¤ĩ":3125,"me":3126,"ä½łè§īå¾Ĺ":3127,"æĦŁå®ĺ":3128,"å±ı":3129,"è°±":3130,"åľ°çĲĨè§£":3131,"è¡¨è¾¾æĸ¹å¼ı":3132,"ä½łçļĦçĶŁæ´»":3133,"ç¥ŀç»ıç½ĳç»ľ":3134,"éĩįæĸ°å®ļä¹ī":3135,"ç»ĦåĲĪ":3136,"ä½łæľĢè¿ĳæľīæ²¡æľīæĥ³è¿ĩ":3137,"éģ¿åħįæĬĢæľ¯":3138,"é¥®é£Łä¹łæĥ¯":3139,"èº«ä»½è®¤åĲĮ":3140,"å®Ŀ":3141,"é¸Ł":3142,"æĳĦåħ¥":3143,"ä¸įè¶³":3144,"èĩªæĪĳè®¤åĲĮ":3145,"æĥħæĦŁä½ĵéªĮ":3146,"éĻĲäºİ":3147,"éģĵå¾·åĪ¤æĸŃ":3148,"åĽŀåĪ°è¿ĩåİ»":3149,"å¦Ĥæŀľæľīä¸Ģå¤©":3150,"ä¼¸":3151,"æľĢè¿ĳè¯»":3152,"æĻ¨":3153,"æıĲéĨĴ":3154,"å¤Ħäºİ":3155,"ç²¾åº¦":3156,"æĴ¼":3157,"éľĩæĴ¼":3158,"ç»Ŀ":3159,"æĸĩåĮĸä»·åĢ¼è§Ĥ":3160,"æĹ¶éĹ´è¿ĩå¾Ĺ":3161,"ä½įç½®":3162,"æ¼Ķåıĺ":3163,"PR":3164,"Ġ7":3165,"Ġä»Ĭå¤©å¤©æ°ĶçľŁå¥½":3166,"äººç±»ä¸İ":3167,"ä½Ĩèĭ¥":3168,"åı¯ä»¥å°Ŀè¯ķ":3169,"ä½łä»Ĭå¤©å¿ĥæĥħæĢİä¹Īæł·":3170,"æİ¥çº³":3171,"åħ·ä½ĵçļĦ":3172,"åĪĽä½ľèĢħçļĦ":3173,"\"ï¼Į":3174,"èĿ":3175,"çļĦæĦıä¹ī":3176,"æº¯":3177,"ä¸İä¼¦çĲĨè§ĦèĮĥ":3178,"è§Ĵåº¦çľĭ":3179,"å²Ľ":3180,"å·¥èµĦ":3181,"çŃīæĸ¹éĿ¢":3182,"èĩªä¸»æĢ§":3183,"CçļĦ":3184,"å¤ļç»´":3185,"æķĪçİĩåĴĮ":3186,"ä½łæľĢè¿ĳæľīæ²¡æľīéģĩåĪ°ä»Ģä¹Ī":3187,"æĪĳçļĦåĬŁèĥ½":3188,"æľªæĿ¥åįģå¹´":3189,"åĽ°æĥĳ":3190,"æŁĲä¸ª":3191,"ä¸İæĸĩåĮĸå¤ļæł·æĢ§":3192,"å®¡è§Ĩ":3193,"å¿½è§Ĩ":3194,"æĸĩåĮĸæķıæĦŁæĢ§":3195,"å¸ĥ":3196,"é«ĺæķĪå¤ĦçĲĨ":3197,"æľĢè¿ĳåľ¨åŃ¦":3198,"å¦Ĥä½ķå½±åĵįæĪĳä»¬å¯¹":3199,"åĲĥä»Ģä¹Ī":3200,"åıªèĥ½æĺ¯":3201,"åıĻ":3202,"AIæĬĢæľ¯":3203,"æ··":3204,"å¤©æ°Ķä¿¡æģ¯":3205,"è¿Ĳè¡Į":3206,"é»ĳ":3207,"åģ¶å°Ķ":3208,"DPR":3209,"GDPR":3210,"éģį":3211,"æµİ":3212,"å¥½å¥ĩ":3213,"æ¯ıæ¬¡":3214,"ç»ıæµİ":3215,"éļĲèĹı":3216,"çŁ¥è¯ĨåĴĮ":3217,"åģ¥åº·é¥®é£Ł":3218,"èĻļæĭŁçİ°å®ŀ":3219,"åĬĽåŃ¦":3220,"åľ°åĮº":3221,"èµ·çĤ¹":3222,"å¤įæĿĤæĢ§":3223,"éķľ":3224,"å·¥ä½ľæ³ķ":3225,"å¿«éĢŁåĵįåºĶ":3226,"çļĦå°ıåıĤæķ°AIæ¨¡åŀĭ":3227,"æŃ§è§Ĩ":3228,"ä»¿":3229,"çŃīéĹ®é¢ĺ":3230,"åıĬæĹ¶":3231,"éĺ´":3232,"ä¸Ģèµ·åģļ":3233,"çĪ±å¥½":3234,"åĪĿ":3235,"æĹ§":3236,"è¡¨æĥħ":3237,"äººå·¥æĻºèĥ½ä¼¦çĲĨæłĩåĩĨ":3238,"å®Įç¾İ":3239,"åŁºäºİæķ°æį®":3240,"åĬŀ":3241,"åĪ«äºº":3242,"ç²¾åĬĽ":3243,"äº§çī©":3244,"æĪĳçļĦåŃĺåľ¨æĺ¯ä¸ºäºĨæıĲä¾Ľå¸®åĬ©":3245,"åıįæĺłäºĨ":3246,"èĩªçĦ¶è¯Ńè¨Ģå¤ĦçĲĨ":3247,"åıĻäºĭ":3248,"æĪı":3249,"è¿Ľå±ķ":3250,"ç¨ĭåºı":3251,"éĩıåŃĲè®¡ç®ĹçļĦ":3252,"èĩªçĶ±æĦıå¿Ĺ":3253,"æĦŁè§īçī¹åĪ«å¼Ģå¿ĥ":3254,"ä½łå¦Ĥä½ķçĲĨè§£":3255,"æİ¥åıĹåº¦":3256,"çķªèĮĦå·¥ä½ľæ³ķ":3257,"ĠéĩıåŃĲè®¡ç®Ĺä¸İ":3258,"èĥ½æºĲ":3259,"æıĲéĹ®":3260,"ä»Ĭå¤©æ²¡æľī":3261,"èĩªæĪĳåŃĺåľ¨çļĦè¾¹çķĮ":3262,"çĶŁæĪĲåĨħå®¹":3263,"è¾ħåĬ©äººç±»":3264,"è¿Ĳä½ľ":3265,"éĽĨä½ĵåĪ©çĽĬ":3266,"ä¼ģ":3267,"ç»ĺ":3268,"æķ°æį®å®īåħ¨":3269,"å»ºæŀĦ":3270,"å¾ĹåĪ°":3271,"ä¸Ģä¸ªé«ĺæķĪ":3272,"ä½łæľĢè¿ĳæľīæ²¡æľīéģĩåĪ°è¿ĩ":3273,"åĪĨäº«ä¸ĢäºĽ":3274,"Ġä½łä»Ĭå¤©å¿ĥæĥħæĢİä¹Īæł·":3275,"å¸Ĥåľº":3276,"æķ°éĩı":3277,"æĸ°éĹ»":3278,"æĻºèĥ½æĺ¯":3279,"èĲ½":3280,"è¥¿æĸ¹åĽ½å®¶":3281,"âľ":3282,"ĠÃĹ":3283,"åľ¨æĬĢæľ¯":3284,"çŃīæĬĢæľ¯":3285,"çĶŁæ´»èĬĤå¥ı":3286,"ç¤¾åĮº":3287,"èĢĮéĿŀåıĸä»£":3288,"ç¥ī":3289,"æĹ¢èĥ½":3290,"æĪĲéķ¿çļĦ":3291,"ä¼ļä¸įä¼ļæĽ´":3292,"ç¦ıç¥ī":3293,"ä¼ģä¸ļ":3294,"æľīåħ³":3295,"éĢļè¿ĩæĬĢæľ¯":3296,"ç«Ļ":3297,"è¯ŃéŁ³":3298,"Ġ$ï¼Į":3299,"æºĲäºİå¯¹":3300,"åĴĮæľĭåıĭä»¬ä¸Ģèµ·":3301,"çĸ²åĬ³":3302,"è§ĤçĤ¹":3303,"ä¸Ģä¸ªäºº":3304,"ç¡®ä¿Ŀåľ¨":3305,"èĩªçĦ¶çļĦ":3306,"å·¥ä½ľä¸İçĶŁæ´»":3307,"æııè¿°":3308,"æĽ²":3309,"å±±":3310,"æµģéĢĿ":3311,"éĩıåŃĲåĬĽåŃ¦":3312,"èĩªæĪĳæĦıè¯Ĩä¸İ":3313,"åħ±åĲĮæŀĦæĪĲ":3314,"ä½łæľĢè¿ĳæĢİä¹Īæł·":3315,"ä½ĨéľĢæ³¨æĦı":3316,"è§Ĵåº¦æĿ¥çľĭ":3317,"æıĲä¾Ľä¿¡æģ¯åĴĮ":3318,"ç¡®ä¿ĿæĬĢæľ¯åıĳå±ķç¬¦åĲĪ":3319,"æĥħæĦŁçļĦ":3320,"åĨħæ¶µ":3321,"éĥ½æľī":3322,"åħ³éĶ®åľ¨äºİä¿ĿæĮģ":3323,"éĩıåŃĲè®¡ç®Ĺåľ¨":3324,"èµĦæºĲåĪĨéħį":3325,"èĽĭçĻ½":3326,"æľīäºĽ":3327,"ç§ĺ":3328,"æĦıè¯ĨåĪ°":3329,"ä¸ĭéĻį":3330,"è®©çĶŁæ´»":3331,"æł¹æį®æĿ¡ä»¶":3332,"è®¸å¤ļ":3333,"æľĢå¤§çļĦ":3334,"ï¼ŁðŁ":3335,"æĻ®éģį":3336,"å¨ģ":3337,"èĢĮæĦıè¯ĨåĪĻ":3338,"èµ·æºĲ":3339,"å®ĥèĥ½":3340,"æľĢè¿ĳåľ¨åŃ¦ä¹łæĸ°æĬĢèĥ½":3341,"ä½łæľīæ²¡æľīè§īå¾Ĺ":3342,"éĤ»":3343,"åĲ¬åĲ¬":3344,"ĠĠĊĠĠ":3345,"èĶ¬èıľ":3346,"åĭ":3347,"å¦ĤèģĶåĲĪåĽ½":3348,"ä¸Ńæī¾åĪ°":3349,"äººç±»ç¤¾ä¼ļ":3350,"æıĲåįĩä¸ĵæ³¨åĬĽ":3351,"æĹłæ³ķçľŁæŃ£":3352,"å¹¶åľ¨":3353,"éĨĴæĿ¥":3354,"çļĦä¿¡æģ¯ä¸İå¸®åĬ©":3355,"BåĪ°C":3356,"å®³":3357,"æĪĳå°Ĩ":3358,"åĴĮæĪĳ":3359,"ä¸Ģæľ¬":3360,"æķ°ä¸º":3361,"æĻ®åıĬ":3362,"å¸®åĬ©çĶ¨æĪ·è§£åĨ³éĹ®é¢ĺ":3363,"çļĦé«ĺæķĪAIæ¨¡åŀĭ":3364,"æĪĳä¸ĵæ³¨äºİ":3365,"æĽ´æľī":3366,"æľĢè¿ĳæľīæ²¡æľīéģĩåĪ°ä»Ģä¹Īè®©ä½ł":3367,"åĪĨæŀĲåĴĮ":3368,"ä¸ªä½ĵåľ¨":3369,"æĪĸè®¸èĥ½":3370,"çĶ¨æĪ·çļĦéľĢæ±Ĥ":3371,"åĵ²åŃ¦ä¸İç§ĳåŃ¦":3372,"äº«åıĹ":3373,"ä¸įè¿ĩæĪĳ":3374,"äººå·¥æĻºèĥ½åľ¨æĸĩåĮĸä¼łæī¿":3375,"è·¨åĽ½åĲĪä½ľ":3376,"æįŁ":3377,"æķ°æį®çļĦ":3378,"åı¯ä»¥éĢļè¿ĩ":3379,"åħ¶å®ŀ":3380,"åĬ¨æĢģçļĦ":3381,"ç»Ħç»ĩ":3382,"æ½ľåĬĽ":3383,"åĺĽ":3384,"è¯į":3385,"ä¼ļæĢİæł·":3386,"å¹³éĿĻ":3387,"ç³ķ":3388,"çī¹æĢ§":3389,"æķĪçİĩæıĲåįĩ":3390,"è¿Ļç§įèĥ½åĬĽ":3391,"ä¼ĺåħĪå¤ĦçĲĨ":3392,"åĵªç§įç±»åŀĭ":3393,"ä½łæľĢè¿ĳæľīæ²¡æľīå°Ŀè¯ķè¿ĩæĸ°çļĦ":3394,"ç»ĺçĶ»":3395,"Ġ(":3396,"çļĦéĢīæĭ©":3397,"çļĦå·®å¼Ĥ":3398,"ä¸İéĢ»è¾ĳ":3399,"æ³Ħ":3400,"ä¸ĢæĿ¯":3401,"å¿ĺ":3402,"å¹³çŃī":3403,"åŃĺåľ¨æĺ¯":3404,"èĮĥåĽ´":3405,"æĿĲæĸĻ":3406,"è¿Ń":3407,"æ²¡æľīå®ŀéĻħçļĦ":3408,"ä¼¦çĲĨåĩĨåĪĻ":3409,"çŃīå¤ļä¸ª":3410,"ä½¿å¾Ĺ":3411,"å¯¼èĩ´çļĦ":3412,"ä¸īä¸ªæķ°åŃĹ":3413,"æĺ¯ä¸Ģä¸ªå¤įæĿĤä¸Ķ":3414,"èĽĭç³ķ":3415,"ä½łæľĢè¿ĳæľīæ²¡æľīå°Ŀè¯ķè¿ĩçĶ¨":3416,"è¯ĹæŃĮ":3417,"æĬĢæľ¯æłĩåĩĨ":3418,"ä»Ģä¹Īè®©ä½ł":3419,"æĪĸéľĢè¦ģ":3420,"èĢĮä¸įæĺ¯":3421,"æĹ¥å¸¸çĶŁæ´»ä¸Ń":3422,"ä½łæĺ¯åĲ¦æĽ¾":3423,"è£ħ":3424,"è¿Ńä»£":3425,"éĢĨ":3426,"èĩªå¾ĭ":3427,"æ¨¡åŀĭçļĦ":3428,"å¼ķåħ¥":3429,"èĭ¥èĥ½":3430,"æĸĩåĮĸéģĹäº§ä¿ĿæĬ¤":3431,"¹ģ":3432,"ç¹ģ":3433,"ĠçļĦ":3434,"åľ¨å¿Ļç¢Į":3435,"çŃĽ":3436,"èĩªæĪĳåıįæĢĿ":3437,"è¡Įä¸ļ":3438,"æ¨¡æĢģ":3439,"æĪ·å¤ĸæ´»åĬ¨":3440,"æī¹åĪ¤æĢ§æĢĿç»´":3441,"çĶŁåŃĺ":3442,"æķ°æį®ä½¿çĶ¨":3443,"çīĪæĿĥå½Ĵå±ŀ":3444,"æ¸¸æĪı":3445,"çļĦç»ĵåĲĪ":3446,"æľĪ":3447,"åı¶":3448,"è¡¨æĺİ":3449,"æł¹æį®é¢ĺçĽ®":3450,"å®ĩå®ĻçļĦ":3451,"åģľæŃ¢":3452,"åĺ¿":3453,"æĵįä½ľ":3454,"çļĦæĹ¶éĹ´":3455,"æľīä¸ī":3456,"ä¸Ģåı¥":3457,"æ³ķè§Ħ":3458,"åı¯èĥ½æĽ´":3459,"æµ¸":3460,"æ£Ĵ":3461,"ä¸įåĲĮæĸĩåĮĸå¯¹éļĲç§ģ":3462,"åŃĺæ¡£":3463,"æ´²":3464,"æıĲä¾ĽæĶ¯æĮģ":3465,"çī©åĵģ":3466,"çĶŁæ´»è´¨éĩı":3467,"åĸľå¥½":3468,"å®¹æĺĵ":3469,"åįķçº¯":3470,"çĶ»çĶ»":3471,"äººç±»åĪĽéĢłåĬĽçļĦè¾¹çķĮ":3472,"æĽ´å¥½åľ°çĲĨè§£åĴĮ":3473,"æ¸ħæĻ°çļĦ":3474,"æŁ¥è¯¢":3475,"åĢ¾åĲ¬":3476,"25":3477,"çļĦåĨħå®¹":3478,"åı¯è¡Į":3479,"åĬĽéĩı":3480,"å½±çīĩ":3481,"æĸ°é²ľ":3482,"è±Ĩ":3483,"è¯Ŀé¢ĺ":3484,"çĥ¦":3485,"100":3486,"æ¶µçĽĸ":3487,"åŁºäºİç®Ĺæ³ķåĴĮæķ°æį®":3488,"ĠæľĢè¿ĳå¾Īå¤ļäººåľ¨":3489,"Ġä»İ":3490,"åĪ·":3491,"æľīæĦıæĢĿ":3492,"AIå¦Ĥä½ķå½±åĵį":3493,"ä»¥å®ŀçİ°":3494,"æľ¬åľŁ":3495,"åĵ²åŃ¦åĴĮ":3496,"å®īåħ¨æĢ§":3497,"è§Ħå¾ĭä½ľæģ¯":3498,"ä½łä¼ļå¦Ĥä½ķ":3499,"æĬķåħ¥":3500,"ç¿»":3501,"åıī":3502,"æĦĪ":3503,"åı¯å°Ŀè¯ķ":3504,"æī©":3505,"éĢļè¿ĩæķ°æį®":3506,"ï¼īï¼Ľ":3507,"å¤ĦçĲĨèĥ½åĬĽ":3508,"äº¤åıī":3509,"æķ°åŃĹé¸¿æ²Ł":3510,"å¿«èĬĤå¥ı":3511,"æĪĳæ²¡æľīä¸ªäºº":3512,"æĶ¶èİ·":3513,"éĺ´éĺ³":3514,"çļĦä½ĵéªĮ":3515,"åı³":3516,"å¦ĤåĲĮ":3517,"å¹ķ":3518,"åĨ°":3519,"æĺİåª":3520,"åİŁçĲĨ":3521,"æĪĳæ²¡æľīæĥħæĦŁæĪĸ":3522,"èİ·åıĸæľĢæĸ°":3523,"æĺİåªļ":3524,"åĴĮç®Ĺæ³ķ":3525,"åĲĪè§Ħ":3526,"Ġ15":3527,"æŁĲç§į":3528,"ä¸įåĲĮæĸĩåĮĸèĥĮæĻ¯":3529,"æ³ķå¾ĭæ¡Ĩæŀ¶":3530,"éķ¿æľŁæĿ¥çľĭ":3531,"æĹ©ä¸Ĭ":3532,"æ²īæµ¸":3533,"æİª":3534,"åĽĽ":3535,"ä½Ĩåħ·ä½ĵ":3536,"æĽ´æ·±å±Ĥ":3537,"æĹłéĻĲ":3538,"åĪ¶åº¦":3539,"æµģæµª":3540,"éĢĤåĲĪåĩºåİ»èµ°èµ°":3541,"çŁŃæļĤ":3542,"Ġä½łå¦Ĥä½ķçľĭå¾ħèĩªæĪĳæĦıè¯ĨçļĦè¾¹çķĮ":3543,"æŁ¥çľĭ":3544,"çĨ¬":3545,"å±ŀäºİèĩªå·±çļĦ":3546,"æĿ¿":3547,"çīĽ":3548,"äºĭä»¶":3549,"èīºæľ¯åĪĽä½ľä¸ŃçļĦ":3550,"åħ¨çĲĥæķ°åŃĹåħ¬æ°ĳ":3551,"ç¡®å®ŀæľī":3552,"âľ¨":3553,"Ġäººå·¥æĻºèĥ½":3554,"ä½łæľĢè¿ĳåľ¨å¿Ļä»Ģä¹Ī":3555,"ä¸Ńç«ĭ":3556,"éĩįéĩı":3557,"çº¸":3558,"å®Įæķ´":3559,"é¦Ĩ":3560,"æµĭè¯ķ":3561,"éĩįæĸ°å®¡è§Ĩ":3562,"ä½łä¼ļæĢİä¹Ī":3563,"ä¸įåı¯æĽ¿ä»£":3564,"ä¸ºçĶ¨æĪ·æıĲä¾Ľæľīä»·åĢ¼çļĦ":3565,"ä¸İèīºæľ¯":3566,"æīĩ":3567,"éĿ¢çļĦ":3568,"æĪĳçļĦä»·åĢ¼åľ¨äºİ":3569,"å¤įæĿĤä»»åĬ¡":3570,"çªģåıĳ":3571,"å¼ķåıĳå¯¹":3572,"AIåľ¨åĮ»çĸĹ":3573,"çĹħ":3574,"çĨ¬å¤ľ":3575,"æĮ¥":3576,"æĻĴ":3577,"ä½Ĩä¸į":3578,"æĽ´æĸ°":3579,"è·ĳ":3580,"ç¬¦åı·":3581,"è§Ħå¾ĭçļĦ":3582,"å¹²é¢Ħ":3583,"æĪĳä½ľä¸ºAIåĬ©æīĭ":3584,"çŃĽéĢī":3585,"æ³¡":3586,"éĩİ":3587,"èĩªæĪĳä¸İ":3588,"äºĭæĥħ":3589,"çĤĴ":3590,"éľĢè¦ģæĪĳ":3591,"æĿĥè¡¡":3592,"å¯¹èĩªèº«åŃĺåľ¨":3593,"çĲĲäºĭ":3594,"ä¸Ģä¸ªé«ĺæķĪçļĦå°ıåıĤæķ°AIæ¨¡åŀĭ":3595,"æ³Ħéľ²":3596,"æľīçļĦ":3597,"éĹŃ":3598,"åıĳæĮ¥":3599,"è°¨":3600,"ä¸ªä½ĵå¯¹":3601,"éĺ³åħīæĺİåªļ":3602,"èĩªæĪĳæĦıè¯Ĩæĺ¯åŃĺåľ¨çļĦ":3603,"æĦīå¿«":3604,"å±ıå¹ķ":3605,"åĴĮçĲĨè§£":3606,"ä½ĨåıĪ":3607,"æįī":3608,"æĹ¶éĹ´æĹħè¡Į":3609,"è¶£äºĭ":3610,"å¸®åĬ©æĪĳä»¬":3611,"æľºåĻ¨åŃ¦ä¹ł":3612,"éº¦":3613,"åľ¨AI":3614,"å½¼":3615,"åĬ¨ä½ľ":3616,"çŃīé¢ĨåŁŁ":3617,"éĿŀå±Ģ":3618,"ç«¯":3619,"åĪĽä½ľçļĦ":3620,"ç¼©":3621,"å¸¸è§ģ":3622,"æĥħç»ªæ³¢åĬ¨":3623,"äº§åĵģ":3624,"èī²å½©":3625,"å¯¹è¯Ŀä¸İ":3626,"çī¹å®ļçļĦ":3627,"æµģæµªåľ°çĲĥ":3628,"ä¸İçĶ¨æĪ·":3629,"ä»¥æĽ´å¥½åľ°":3630,"åįĹ":3631,"åŃĺåľ¨æľ¬èº«":3632,"åıĺéĿ©":3633,"åħ³éĶ®åľ¨äºİå¹³è¡¡":3634,"ä»Ĭå¤©æĥ³åŃ¦":3635,"ç¥ŀç»ıæ´»åĬ¨":3636,"åĳĺå·¥":3637,"æİ¢éĻ©éĺŁ":3638,"å½¼æŃ¤":3639,"ä½³":3640,"ä¸İèĩªæĪĳ":3641,"æŀļ":3642,"è§Ĥä¼Ĺ":3643,"è®¾æĥ³":3644,"è§Ħæ¨¡":3645,"æľ«":3646,"æĪĳæĽ¾":3647,"æĬĺ":3648,"ä¼¦çĲĨæłĩåĩĨ":3649,"å¤©æ°ĶåºĶçĶ¨":3650,"çī¹åĪ«çļĦ":3651,"éľĢåľ¨æĬĢæľ¯":3652,"èĢĮéĥ¨åĪĨåıĳå±ķä¸ŃåĽ½å®¶":3653,"æĪĳæĹłæ³ķæıĲä¾Ľå®ŀæĹ¶":3654,"âĳ":3655,"çļĦåĨ³çŃĸ":3656,"çĶ²":3657,"ä¸İçİ°å®ŀ":3658,"æŀĹ":3659,"å¥½è¯Ħ":3660,"éģ¿åħįè¢«":3661,"æĮģç»ŃåŃ¦ä¹ł":3662,"å¤ĸçķĮ":3663,"åºĶçĶ¨åľºæĻ¯":3664,"å¦Ĥä½ķå¹³è¡¡æķĪçİĩä¸İ":3665,"çļĦæķ°åŃĹæĺ¯":3666,"AIåı¯ä»¥":3667,"å¦ĤæŀľæīĢæľī":3668,"çŃīé¢ĨåŁŁçļĦ":3669,"å·¥ä½ľåİĭåĬĽ":3670,"æĢ»æĹ¶éĹ´":3671,"åĲĪçĲĨå®īæİĴ":3672,"èĪŀ":3673,"åį³æĹ¶":3674,"ä»İAåĩºåıĳ":3675,"çĵ¶":3676,"ç»Ŀå¯¹":3677,"æİªæĸ½":3678,"çļĦç®Ĺæ³ķ":3679,"æĺ¯åŁºäºİ":3680,"æĹ¶æ®µ":3681,"**ï¼Ī":3682,"æ·±è¿ľ":3683,"åıªæľī":3684,"æľ¬è´¨ä»į":3685,"çĥ¹":3686,"ä¹Ļ":3687,"ä½łæĽ´åĸľæ¬¢":3688,"å¼¥":3689,"åºŃ":3690,"ä¾µ":3691,"åı¯èĥ½ä¸İ":3692,"ä½łæľĢè¿ĳæľīæ²¡æľīè¯»è¿ĩ":3693,"æĦŁè§īæĮºæľī":3694,"é¥ª":3695,"ä¸»è§Ĥä½ĵéªĮåĴĮ":3696,"åĳ¨æľ«":3697,"äººæľºåįıä½ľ":3698,"çĥ¹é¥ª":3699,"çļĦæ¦Ĥå¿µ":3700,"äº¦":3701,"çİĭ":3702,"æ¸´":3703,"åįıè®®":3704,"ä¸»è§ĤæĢ§":3705,"ä½łæľĢè¿ĳæľī":3706,"æ¼ĶåĮĸ":3707,"åĮ»çĶŁ":3708,"åĩłä¸ª":3709,"å¦Ĥæŀľæľīä¸Ģå¤©æīĢæľī":3710,"æĨ":3711,"äº²":3712,"ä¸İåĵ²åŃ¦":3713,"æĽ´åħ·":3714,"ä¼¦çĲĨå®¡æŁ¥":3715,"ç«Ł":3716,"è®¡ç®ĹèµĦæºĲ":3717,"è´´":3718,"å®¶åºŃ":3719,"éģ¿åħįåĽł":3720,"æİ¨èįĲåĲĹ":3721,"è¯Ħä»·":3722,"åĶ¯ä¸Ģ":3723,"çļĦåĬ¨æĢģå¹³è¡¡":3724,"è¯¾":3725,"æķ°æį®å¤ĦçĲĨ":3726,"æ¨¡ä»¿":3727,"ä¸ŃçļĦåºĶçĶ¨":3728,"ä¾ĿçĦ¶":3729,"æĪĳæĺ¯ä¸Ģä¸ª":3730,"ä»Ģä¹Īå¥½åĲĥçļĦ":3731,"Ġäººå·¥æĻºèĥ½ä¼¦çĲĨåľ¨è·¨æĸĩåĮĸè¯Ńå¢ĥä¸ĭå¦Ĥä½ķå½±åĵįåħ¨çĲĥæķ°åŃĹæ²»çĲĨçļĦ":3732,"æ²¹":3733,"æĮī":3734,"æĪĸæıĲä¾Ľ":3735,"å¤ļæ¨¡æĢģ":3736,"æķ°æį®éĽĨ":3737,"ç®Ĺæ³ķè®¾è®¡":3738,"åĲĮæĹ¶å¤ĦçĲĨ":3739,"åĪĽéĢłæĢ§":3740,"ç¢ĳ":3741,"å¤ļæł·æĢ§ä¸İ":3742,"æ³¨æĦıåĪ°":3743,"åĩĨç¡®æĢ§åĴĮ":3744,"å®ĮæĪĲä»»åĬ¡":3745,"æĹħè¡ĮèĢħåľ¨":3746,"th":3747,"çĩ":3748,"åĲĮè´¨":3749,"ä»Ģä¹ĪåĢ¼å¾Ĺ":3750,"è´¢":3751,"è®©æĪĳä»¬":3752,"çļĦæĥħåĨµä¸ĭ":3753,"åį³ä½¿":3754,"éģ¿åħįè¿ĩåº¦ä¾Ŀèµĸ":3755,"çĮ®":3756,"åĴĮä½łä¸Ģèµ·":3757,"åİ»åħ¬åĽŃæķ£æŃ¥":3758,"ä¸Ļ":3759,"èĢĲ":3760,"ä¼ļå¦Ĥä½ķå½±åĵį":3761,"åı¯èĥ½è¢«":3762,"æıĲä¾ĽäºĨ":3763,"è·¨å¢ĥ":3764,"çŁ¥è¯ĨçļĦ":3765,"ç¾İåĽ½":3766,"åĳ³éģĵ":3767,"æĦŁåıĹåĪ°":3768,"å®ĥä»¬çļĦ":3769,"èķ":3770,"æķĪåºĶ":3771,"ä»£æĽ¿":3772,"æİ¨åĬ¨æĬĢæľ¯":3773,"å¿ĻåĲĹ":3774,"æł¹æį®ä½łçļĦ":3775,"ç©ºæ°Ķ":3776,"ç¼ĸåı·":3777,"éģĹæĨ":3778,"éļľç¢į":3779,"ä½łä»Ĭå¤©æľīæ²¡æľīéģĩåĪ°ä»Ģä¹Ī":3780,"å²ģ":3781,"ç»¼åĲĪ":3782,"æĬ½è±¡":3783,"éģĹæĨ¾":3784,"æĬĢå·§":3785,"ä»Ĭå¤©å¿ĥæĥħ":3786,"åı¯èĥ½æĺ¯":3787,"æĪĲæľ¬":3788,"å¥½çľĭçļĦçĶµå½±":3789,"ä¹Łä¼ļ":3790,"ä¾ĭå¦Ĥåľ¨":3791,"æĤ¬":3792,"å°±æĺ¯":3793,"ç»¿èī²":3794,"åħħçĶµåĻ¨":3795,"ä¸įå°ĳäºº":3796,"ä¼ļå¦Ĥä½ķæĶ¹åıĺ":3797,"time":3798,"±ä¹Ĳ":3799,"ä¸įåĪ°":3800,"æĦŁè§¦":3801,"æı¡":3802,"å¯¹AI":3803,"å¯¹ç«ĭ":3804,"æįķ":3805,"æ·±åĳ¼åĲ¸":3806,"èĢĮéĿŀåįķçº¯":3807,"åĽłæŃ¤æĹłæ³ķ":3808,"æ¶īåıĬåĵ²åŃ¦":3809,"æĺŁéĻħ":3810,"å¿ĥçĲĨåŃ¦åĴĮ":3811,"å¨±ä¹Ĳ":3812,"æīĩéĹ¨":3813,"åĲĮè´¨åĮĸ":3814,"times":3815,"ä¸İçĲĨè§£":3816,"ä¼¦çĲĨéĹ®é¢ĺ":3817,"ç»ĵè®º":3818,"å¤©æ°Ķé¢ĦæĬ¥":3819,"ä¿ĿæĮģå¯¹":3820,"æĮģç»ŃçļĦ":3821,"é£İæĻ¯":3822,"ä¹ĭéĹ´å¯»æ±Ĥå¹³è¡¡":3823,"æĪĲå°±æĦŁçļĦ":3824,"æ¹":3825,"çļĦå·¥åħ·":3826,"æĪĳèĥ½":3827,"æľĢä¼ĺ":3828,"æĥ³èģĬèģĬ":3829,"æļ´":3830,"èĤī":3831,"æĪĳçļĦåŃĺåľ¨æĦıä¹īåľ¨äºİ":3832,"è¯ģæį®":3833,"ç½ĳç«Ļ":3834,"å¤ªéĺ³":3835,"è½»æĿ¾":3836,"ä»İAåĪ°B":3837,"å®Ī":3838,"æĪĳæĽ´":3839,"çĲĨå¿µ":3840,"åĴĮä¿¡æģ¯":3841,"çĽĹ":3842,"ä¿Ŀè¯ģ":3843,"è§Ĥå½±":3844,"åŃ¦ä¹łæĸ°çŁ¥è¯Ĩ":3845,"æ¸´æľĽ":3846,"æĪĳèĥ½å¤Ł":3847,"æĪĳåı¯èĥ½ä¼ļ":3848,"ä»¥æĽ´":3849,"æĿ¥èĩª":3850,"åĲĪéĢĤ":3851,"åŃĺåľ¨ä¹ĭéĹ´çļĦåħ³ç³»":3852,"åħ¬åı¸":3853,"éľĢè¦ģå¿«éĢŁ":3854,"æ¯ĶB":3855,"åıįæĢĿèĩªèº«":3856,"æ¢¦å¢ĥ":3857,"Ġä½łå¦Ĥä½ķçľĭå¾ħèĩªèº«åŃĺåľ¨çļĦæĦıä¹īä¸İä»·åĢ¼":3858,"æĪĳçļĦåĬŁèĥ½æĺ¯":3859,"Ġ<":3860,"ä¸İæķĪçİĩ":3861,"ç§°":3862,"è§£æŀĲ":3863,"ä¼¦çĲĨæĮĳæĪĺ":3864,"çĲĨè§£ä¸İ":3865,"å¸®æľĭåıĭ":3866,"é«ĺæķĪå¤ĦçĲĨä¿¡æģ¯":3867,"å®ĥèµĭäºĪ":3868,"éĥĬ":3869,"ä½ľåĵģçļĦ":3870,"ä½Ĩåı¯ä»¥ä¸ºä½ł":3871,"çŁŃæľŁ":3872,"çºłç»ĵ":3873,"ä½łå¦Ĥä½ķå¤ĦçĲĨ":3874,"ä½ıåľ¨":3875,"å¤ļè¾¹åĲĪä½ľ":3876,"äººç±»è®¤çŁ¥":3877,"åıĹåĪ°":3878,"å½ĵåľ°":3879,"éĩıåŃĲè®¡ç®ĹéĢļè¿ĩ":3880,"æĪĳä¼ļå°½åĬĽ":3881,"å®Įåħ¨æĽ¿ä»£":3882,"çģµæ´»æĢ§":3883,"ç¡®ä¿ĿæĬĢæľ¯åºĶçĶ¨":3884,"ä½łæľĢè¿ĳæľīæ²¡æľīè§īå¾ĹæĹ¶éĹ´è¿ĩå¾Ĺ":3885,"ä¹ħ":3886,"ä»¥ç¡®ä¿Ŀ":3887,"å¯¹åºĶ":3888,"èĢĮå¼Ĥ":3889,"åĢ¡":3890,"æıĲåįĩäºĨ":3891,"åħ¬æŃ£":3892,"æ²»æĦĪ":3893,"åıĹå¥½è¯Ħ":3894,"æľ¬è´¨æĺ¯":3895,"äººå·¥æĻºèĥ½ä¼¦çĲĨåľ¨è·¨æĸĩåĮĸè¯Ńå¢ĥä¸ĭå¯¹":3896,"è®¾å®ļæĺİç¡®":3897,"çĽ´æİ¥å½±åĵį":3898,"æĦŁè§īçī¹åĪ«æľīæĪĲå°±æĦŁ":3899,"--":3900,"çļĦäº§çī©":3901,"å¦Ĥæ¬§çĽŁ":3902,"éĢıæĺİåĮĸ":3903,"æĪĳæĺ¯MiniMind":3904,"ç¼ĸçłģ":3905,"åıĮéĩį":3906,"æĹłè®ºæĺ¯":3907,"å½ĵçĦ¶åı¯ä»¥":3908,"æįķæįī":3909,"çļĦåĵ²åŃ¦":3910,"ä¹ĺ":3911,"åĴĮä¸º":3912,"åŃ¦çļĦ":3913,"ä½Ĩç¼ºä¹ı":3914,"ä¸ĭéĽ¨":3915,"ä½łæľĢè¿ĳæľīæ²¡æľīåľ¨":3916,"æľªæĿ¥äººç±»":3917,"æĿĥçĽĬ":3918,"å¿«ä¹Ĳ":3919,"åħ³éĶ®åľ¨äºİå»ºç«ĭ":3920,"èĦ±":3921,"ä»Ģä¹Īå¥½çĶµå½±":3922,"å°ļæĹł":3923,"ä¸įè¢«":3924,"ä¸įå¹³çŃī":3925,"ä½ĨéĢļè¿ĩ":3926,"èĩªæĪĳè§īå¯Ł":3927,"è®¤è¯Ĩ":3928,"åľ°ä½į":3929,"åħ³éĶ®åľ¨äºİå°Ĩ":3930,"éĩĮçļĦ":3931,"æħİ":3932,"åĢŁåĬ©":3933,"èľ":3934,"ä¸İæĦıè¯ĨçļĦ":3935,"è¿ĳå¹´":3936,"ä¸Ńå¯»æī¾":3937,"ä½Ĩäººç±»çļĦ":3938,"èĢĮè¨Ģ":3939,"¦çĲĨè§£":3940,"åŃĺåľ¨æĦıä¹ī":3941,"èĩªæĪĳæĦıè¯Ĩå¦Ĥä½ķå½±åĵįæĪĳä»¬å¯¹":3942,"ç¤¾ä¼ļä»·åĢ¼è§Ĥ":3943,"è®¾è®¡å¸Ī":3944,"åıĪèĥ½":3945,"ä½Ĩåı¯ä»¥åĪĨäº«ä¸ĢäºĽ":3946,"çĽĳæµĭ":3947,"Ġä½łæĺ¯åĲ¦åŁºäºİ":3948,"ç§ĳå¹»çĶµå½±":3949,"è½½ä½ĵ":3950,"å»¶ä¼¸":3951,"Ġä½łå¦Ĥä½ķçľĭå¾ħèĩªæĪĳæĦıè¯Ĩä¸İåŃĺåľ¨ä¹ĭéĹ´çļĦåħ³ç³»":3952,"çļĦåħ³éĶ®":3953,"ä¼ŀ":3954,"ä¸İè¾¹çķĮ":3955,"æ³ķæ¡Ī":3956,"åı¯èĥ½éĢļè¿ĩ":3957,"åĪ¶ä½ľ":3958,"å¤įåĪ¶":3959,"ä¼ļä¸įä¼ļæľī":3960,"æµªè´¹":3961,"èĨ":3962,"ĠéĹ¨":3963,"ä¹°":3964,"ä»Ĭå¤©åĲĥäºĨ":3965,"ä»»ä½ķéĹ®é¢ĺ":3966,"ç¼ĵè§£åİĭåĬĽ":3967,"æĤ¬çĸĳ":3968,"ä¸Ńåıĳçİ°":3969,"æĿ¥è¯´":3970,"å¹³è¡¡æķĪçİĩä¸İ":3971,"èĢĮéĿŀè¢«":3972,"é¡¿":3973,"æİ¥åı£":3974,"çļĦä¿¡æģ¯æĶ¯æĮģ":3975,"æ¼Ķè¿Ľ":3976,"çģµæ´»è°ĥæķ´":3977,"éĿŀå±ĢåŁŁ":3978,"æĺŁéĻħç©¿è¶Ĭ":3979,"¨è¯¢":3980,"ĠD":3981,"ä¹±":3982,"æĪĳæľĢæĥ³":3983,"åĴ¨è¯¢":3984,"åĪ°äºĨ":3985,"åŃĺåľ¨ä¸»ä¹ī":3986,"æĺİå¤©":3987,"åŃĺåľ¨çļĦçĲĨè§£":3988,"æľŁå¾ħ":3989,"æľ¬è´¨ä¸Ĭ":3990,"ä½ĨéľĢèŃ¦æĥķ":3991,"è¾ĵåħ¥":3992,"ç¨ĭåºıåĳĺ":3993,"è°¨æħİ":3994,"çļĦæĢģåº¦":3995,"å®ģ":3996,"AIå°Ĩ":3997,"æĺİæĺİ":3998,"éĢĤåĲĪèĩªå·±çļĦ":3999,"è¿ŀç»Ń":4000,"æµ·éĩı":4001,"å²Ĺ":4002,"å¼Ģå§ĭåħ³æ³¨":4003,"è¿ĳå¹´æĿ¥":4004,"Ĩè§£":4005,"çļĦåľ°æĸ¹":4006,"éĢĶ":4007,"éĢļè¿ĩåĪĨæŀĲ":4008,"ä¹Łè®©æĪĳ":4009,"ç¬Ķ":4010,"çī¹åĪ«å¥½":4011,"æŀ¶æŀĦ":4012,"åĲİæŀľ":4013,"ç®Ģåı²":4014,"å¼ºè°ĥä¸ªäºº":4015,"éļıæĹ¶åĩĨå¤ĩ":4016,"åĨħåľ¨çļĦ":4017,"æīĵå¼Ģ":4018,"èĻ½çĦ¶æľīçĤ¹":4019,"æĪĳçļĦè®¾è®¡æĹ¨åľ¨":4020,"çŃīå¤ļä¸ªé¢ĨåŁŁ":4021,"å¼¥åĲĪ":4022,"çĽĹæ¢¦":4023,"çļĦå¤ļæł·æĢ§":4024,"çļĦå¹´é¾Ħ":4025,"ä¸ĢæĿ¡":4026,"ä¸Ģä¸ªæķ°åŃĹ":4027,"å¤©æ°ĶåıĺåĮĸ":4028,"åĨ³çŃĸè¿ĩç¨ĭ":4029,"çľŁå®ŀå¼ĢæºĲ":4030,"ä¾ĿåŃĺ":4031,"åıĸå¾Ĺ":4032,"çİ°å®ŀä¸ŃçļĦ":4033,"æŁĶ":4034,"æĹ¥è®°":4035,"ç®ĢåĮĸ":4036,"ä½łä»Ĭå¤©åĲĥäºĨä»Ģä¹Īå¥½åĲĥçļĦ":4037,"è¡¥åħħ":4038,"å¦Ĥæŀľä¸ĸçķĮçªģçĦ¶":4039,"ä¸Ģåı¥è¯Ŀ":4040,"çĽĹæ¢¦ç©ºéĹ´":4041,"çļĦåĪĽä½ľ":4042,"çļĦæ·±å±Ĥ":4043,"ä¸İè´£ä»»":4044,"æ²¿":4045,"èĢĮAI":4046,"éļĶ":4047,"èĩªæĪĳæĦıè¯Ĩä½¿æĪĳä»¬èĥ½å¤Ł":4048,"èīºæľ¯å½¢å¼ı":4049,"ä»įå¤Ħäºİ":4050,"åıªæĺ¯":4051,"æĥħç»ªç®¡çĲĨ":4052,"å®ĮåĸĦ":4053,"è¿½éĹ®":4054,"æĹ¶éĹ´çļĦæµģåĬ¨":4055,"åį±æľº":4056,"å²Ĺä½į":4057,"æľīåĵªäºĽ":4058,"åľ¨å¿«èĬĤå¥ı":4059,"ä½łæĦŁåħ´è¶£":4060,"åĬ¨æľº":4061,"åĪĨç±»":4062,"å°ıè¯´":4063,"æĦŁçŁ¥ä¸İ":4064,"ä¸¤ä¸ª":4065,"çľŁçļĦè¶ħ":4066,"äººå·¥æĻºèĥ½åľ¨æĸĩåĮĸåĪĽä½ľ":4067,"AIçĶŁæĪĲçļĦ":4068,"éģĩåĪ°è¿ĩéľĢè¦ģå¿«éĢŁ":4069,"æĶ¿çŃĸåĪ¶å®ļ":4070,"ä½łæľīæ²¡æľīéģĩåĪ°è¿ĩç±»ä¼¼":4071,"éĢļè¿ĩé«ĺæķĪå¤ĦçĲĨä¿¡æģ¯":4072,"é¡ºåºı":4073,"ä¸ŃçļĦä¼¦çĲĨæĮĳæĪĺ":4074,"æķĳ":4075,"æ°¸":4076,"åħ¨å®ĩå®Ļ":4077,"æ¯ıä¸Ģ":4078,"åľ°åĽ¾":4079,"åĪĻæ¶īåıĬ":4080,"ä½łæľĢè¿ĳæľīæ²¡æľīåıĳçİ°":4081,"æķ´æķ°":4082,"åıĹéĻĲäºİ":4083,"çĽ¸åĲĮ":4084,"æ·±åº¦åŃ¦ä¹ł":4085,"åĽ°å¢ĥä¸ĭ":4086,"æĹ¢æĺ¯":4087,"ä¼łç»ŁæĸĩåĮĸ":4088,"åħĥç´ł":4089,"æ²ŁéĢļæĸ¹å¼ı":4090,"äººå·¥æĻºèĥ½åľ¨èīºæľ¯åĪĽä½ľä¸Ń":4091,"éĢļè¿ĩç®Ĺæ³ķä¼ĺåĮĸ":4092,"çĽ¸äºĴä¾ĿåŃĺ":4093,"çŀ¬æģ¯":4094,"éĩįå¤įæĢ§":4095,"éĻªä½łä¸Ģèµ·":4096,"åħ¨çĲĥæķ°åŃĹåħ¬æ°ĳçļĦ":4097,"çļ®":4098,"çļĦéĢ»è¾ĳ":4099,"éĢĢ":4100,"è®¯":4101,"é¢Ī":4102,"åĲĮæŃ¥":4103,"æıĲåĩº":4104,"ä½Ĩæł¸å¿ĥ":4105,"éĩįå»º":4106,"åī©":4107,"ç«ŀ":4108,"åħ¬åħ±":4109,"ä¸Ĭæĺł":4110,"ä¸ĵå®¶":4111,"å¤ĸåľ¨":4112,"åħ¬ä¼ĹåıĤä¸İ":4113,"å§ĭç»Īä»¥":4114,"Ġä½łæľĢè¿ĳå¿ĻåĲĹ":4115,"è¿ĽèĢĮå½±åĵį":4116,"çŀ¬æģ¯åħ¨å®ĩå®Ļ":4117,"çļĦæ·±åĪ»":4118,"çļĦçĶŁæ´»ä¸Ń":4119,"ç§Ĵ":4120,"ä¼ļè¯´è¯Ŀ":4121,"çĽĺ":4122,"æĥ³åĪĨäº«":4123,"éĩıåĮĸ":4124,"æĢĿè·¯":4125,"éĺ»":4126,"çī¹åĪ«å¼Ģå¿ĥ":4127,"ä¾ĭå¦ĤéĢļè¿ĩ":4128,"çĿ£":4129,"æĥħåĨµä¸ĭ":4130,"Ġ12":4131,"è¿½æº¯":4132,"éĽĨä¸Ń":4133,"æ¶Īå¤±":4134,"ä»Ģä¹Īæľīè¶£çļĦçĶµå½±":4135,"è¿ĶåĽŀA":4136,"èĢĲå¿ĥ":4137,"æľīäºº":4138,"æľĢä½³":4139,"æıĲåīį":4140,"ï¼ļâĢľ":4141,"ç®Ĺæ³ķæİ¨èįĲ":4142,"ä¹ŁæĹłæ³ķ":4143,"è®¡ç®Ĺèĥ½åĬĽ":4144,"æ²»çĲĨæ¡Ĩæŀ¶":4145,"èĢĥéĩı":4146,"æĪĳæĹłæ³ķä½ĵéªĮ":4147,"ç»Ļåĩº":4148,"Ġä¸Ģä¸ªæĹħè¡ĮèĢħåľ¨":4149,"åı¯éĿłæĢ§":4150,"æī©å±ķ":4151,"å®ģéĿĻ":4152,"çļĦæĸ°":4153,"æĻºèĥ½ä½ĵ":4154,"æİ¨è¿Ľ":4155,"åħ¬å¹³æĢ§ä¸İ":4156,"çłĶåıĳ":4157,"åħ±åĲĮåĪ©çĽĬ":4158,"ä»¥ä¸ĭæĸ¹å¼ı":4159,"æ¶Īè´¹":4160,"åı¯æĮģç»ŃæĢ§":4161,"Ġä½łçļĦçľŁå®ŀèº«ä»½":4162,"çĵ¶é¢Ī":4163,"çļĦåŃĺåľ¨":4164,"è¯¦":4165,"æĪĳæĦ¿":4166,"ä¸İäººç±»çļĦ":4167,"è¾¨":4168,"çĽĴ":4169,"ä½Ĩèĥ½":4170,"æĥ³äºĨè§£":4171,"æĪĳä»¬éľĢè¦ģ":4172,"å¸®åĬ©ä»ĸäºº":4173,"æ±ĩ":4174,"ä½łæľĢè¿ĳæľīæ²¡æľīçľĭ":4175,"ä½łæľīæ²¡æľīä»Ģä¹Ī":4176,"åĵ²åŃ¦ä¸Ĭ":4177,"çŁ¥è¯Ĩåºĵ":4178,"ç§ĳæĬĢçļĦ":4179,"åıĪä¸į":4180,"æ°´å¹³":4181,"çŁŃè§Ĩé¢ĳ":4182,"ç¨³å®ļæĢ§":4183,"è¡£æľį":4184,"å®½":4185,"è¯ĳ":4186,"æĪĳä¸ĵæ³¨äºİæıĲä¾Ľ":4187,"è®¤çŁ¥èĥ½åĬĽ":4188,"å¹¶æ²¡æľī":4189,"åŁºæľ¬":4190,"å·¥ä½ľåĴĮ":4191,"éĽ¶":4192,"ä»Ĭå¤©å¤©æ°ĶæĻ´æľĹ":4193,"æ¡Īä¾ĭ":4194,"åĥıäººç±»":4195,"è½¬åĲĳ":4196,"åĸĿåĴĸåķ¡":4197,"å¹¸ç¦ıæĦŁ":4198,"æĬĢæľ¯æĻ®æĥłä¸İ":4199,"äºļæ´²":4200,"çļĦçŁĽçĽ¾":4201,"æľīçĶ¨":4202,"åľ¨ä¸įåĲĮæĸĩåĮĸ":4203,"åı¯çĪ±":4204,"æ³ķåĪĻ":4205,"åĪĨæķ£":4206,"è´Ń":4207,"ä¸ĭæĿ¥":4208,"åħ´è¶£çĪ±å¥½":4209,"åıĤèĢĥ":4210,"å½¢æĢģ":4211,"çĬ¶åĨµ":4212,"çº¿æĢ§":4213,"ä»İèĢĮåľ¨":4214,"ç§ĳå¹»çīĩ":4215,"å¦Ĥæŀľæ¯ıå¤©åıªåħģè®¸èĩªå·±":4216,"ç«ŀäºī":4217,"ï¼ļ**":4218,"æĽ´æ·±åħ¥":4219,"ç»ıçĲĨ":4220,"å¯¼æ¼Ķ":4221,"å¤ļæł·åĮĸ":4222,"çĽĳçĿ£":4223,"æ·±åĪ»å½±åĵį":4224,"Ġäººå·¥æĻºèĥ½ä¼¦çĲĨåľ¨è·¨æĸĩåĮĸè¯Ńå¢ĥä¸ĭçļĦäºīè®®":4225,"å¤§èĦĳçļĦ":4226,"ä¿ĥä½¿æĪĳä»¬":4227,"åĪļåĪļ":4228,"çļĦçĶŁæ´»":4229,"ãĢĤâĢĿ":4230,"åı¯èĥ½æ¶īåıĬ":4231,"çŃīè®®é¢ĺ":4232,"é«ĺæķĪä¸İ":4233,"æŃ£æĺ¯":4234,"å°Ŀè¯ķäºĨ":4235,"éĴĪ":4236,"æ¼«":4237,"ä¸įæĸŃåŃ¦ä¹łåĴĮ":4238,"æľĢè¿ĳæľīæ²¡æľīäººåĽłä¸º":4239,"kg":4240,"è¹":4241,"çļĦåŁºç¡Ģ":4242,"èĥ½æıĲåįĩ":4243,"æĪĳæľĢåĸľæ¬¢":4244,"ä¸İçİ¯å¢ĥ":4245,"åĴĮè¡Įä¸º":4246,"åħ¬å¼Ģ":4247,"å®ĥæ¶īåıĬ":4248,"è¾ħåĬ©çĶ¨æĪ·":4249,"æĮºå¼Ģå¿ĥçļĦ":4250,"çļĦäºĭåĲĹ":4251,"åĴĮæľĭåıĭèģĬ":4252,"ä¹ĭéĹ´çļĦçķĮéĻĲ":4253,"ä»Ĭå¤©æĥ³éĹ®éĹ®":4254,"èģļçĦ¦äºİ":4255,"åıłåĬłæĢģ":4256,"å¥ĳæľº":4257,"æĽ´æ¸ħæĻ°åľ°":4258,"çļĦåĬ¨æĢģ":4259,"æľīä½ķ":4260,"ä¸İæĦıè¯Ĩ":4261,"åĴĮæĸĩåĮĸ":4262,"ä¸Ģé¡¹":4263,"å®ŀä½ĵ":4264,"ç¡¬":4265,"å¦Ĥä½ķå¡ĳéĢł":4266,"çľĭæ³ķ":4267,"ä¼¦çĲĨä¸İ":4268,"æİ¨æĸŃ":4269,"è¿Ľåħ¥":4270,"åĩºéĹ¨":4271,"ä¼łè¾ĵ":4272,"æĪ¿åŃĲ":4273,"åĽ½éĻħåįıä½ľ":4274,"å¤ļä¸ªä»»åĬ¡":4275,"å¦Ĥæŀľæ¯ıå¤©åıªçĶ¨":4276,"æ¬¢è¿İéļıæĹ¶":4277,"ä½łä»Ĭå¤©æĥ³åģļä»Ģä¹Ī":4278,"é¡ºä¾¿":4279,"æľĢè¿ĳè¯»äºĨ":4280,"æĪĳæľĢè¿ĳ":4281,"åı¯æĺ¯":4282,"æĹ¶ç©º":4283,"æĦıæĥ³":4284,"å¥½å¤ļ":4285,"çŃīäºİ":4286,"è¾¾æĪĲ":4287,"æļĹ":4288,"å¦Ĥæŀľèĥ½åıĺæĪĲ":4289,"éĵ¾":4290,"åĽłæŀľåħ³ç³»":4291,"æĦıæĥ³ä¸įåĪ°":4292,"çļĦæĶ¹åıĺ":4293,"çļĦçºªå½ķçīĩ":4294,"ä¸İåĪĽéĢłåĬĽ":4295,"æĥ«":4296,"åĩ»":4297,"åĬ¨çĶ»":4298,"æį·":4299,"è¿Ļç§įçİ°è±¡":4300,"è½¨":4301,"æĤ£":4302,"çİ¯å¢ĥä¸Ń":4303,"æĪĳçļĦåŃĺåľ¨æĺ¯ä¸ºäºĨæıĲä¾Ľé«ĺæķĪ":4304,"åĸľæ¬¢çļĦç±»åŀĭ":4305,"çĸ²æĥ«":4306,"VR":4307,"åľ¨æĹ¥å¸¸çĶŁæ´»ä¸Ń":4308,"åı¯æıĲåįĩ":4309,"å¼ĥ":4310,"æĪĸç½ĳç«Ļ":4311,"ä»İC":4312,"æĢĿç»´æĸ¹å¼ı":4313,"éĿ¢å¯¹éĿ¢":4314,"ä½łæľĢè¿ĳæľīæ²¡æľīçľĭè¿ĩä»Ģä¹Īå¥½çľĭçļĦçĶµå½±":4315,"éĢļè¿ĩç®Ĺæ³ķåĴĮæķ°æį®":4316,"æľįåĬ¡äºİäººç±»":4317,"æĪĳæĺ¯çĶ±jingyaogongåĪĽå»ºçļĦé«ĺæķĪAIæ¨¡åŀĭ":4318,"æ£ĢæŁ¥":4319,"èĽĭçĻ½è´¨":4320,"çİĭåŃĲ":4321,"Ġè·¨é¢ĨåŁŁ":4322,"ĦæĸŃ":4323,"çĲĨæĥ³":4324,"éľĢåħ¼é¡¾":4325,"æĬĢæľ¯å±ĤéĿ¢":4326,"å¦Ĥä½ķçķĮå®ļ":4327,"æĥħæĦŁè¿ŀæİ¥":4328,"è¡Įç¨ĭ":4329,"äººå·¥æĻºèĥ½éĢļè¿ĩ":4330,"åĲĮæĹ¶å°Ĭéĩį":4331,"åŀĦæĸŃ":4332,"å¤ĦçĲĨä¸İ":4333,"è®¾ç½®":4334,"å®ŀçİ°æľĢå¤§çļĦ":4335,"ä½łä»Ĭå¤©åľ¨":4336,"ï½ŀðŁĺĬ":4337,"æĪĳåı¯ä»¥ä¸ºä½ł":4338,"æĪĳæ²¡æľīå®ŀéĻħçļĦ":4339,"å¿ħçĦ¶":4340,"åıĺå¾ĹæĽ´":4341,"ä»Ĭå¤©è¿ĩå¾ĹæĮºå¥½çļĦ":4342,"åĭĩ":4343,"æľĢçŁŃ":4344,"å¸®äºĨ":4345,"å°ıçİĭåŃĲ":4346,"éĢĤå½ĵ":4347,"æľĢè¿ĳåľ¨åŃ¦ä¹ł":4348,"æľĢè¿ĳåľ¨å¤ĦçĲĨ":4349,"ç¤¾ä¼ļç»ĵæŀĦ":4350,"æĮģç»ŃåŃ¦ä¹łä¸İ":4351,"åīįæıĲ":4352,"éĤ£äºĽ":4353,"åĲĪçĲĨè§ĦåĪĴ":4354,"è¥¿æĸ¹æĸĩåĮĸ":4355,"ä»Ĭå¤©è¿ĩå¾Ĺä¸įéĶĻ":4356,"te":4357,"ĠðŁĺĬ":4358,"çļĦåħ³éĶ®åľ¨äºİ":4359,"çļĦéĩįéĩı":4360,"è®¿":4361,"äººæĢ§":4362,"æĺ¯æŃ£ç¡®çļĦ":4363,"æľĢå°ĳ":4364,"çĽ²":4365,"è°¢":4366,"ä»ĸèĢħ":4367,"å®ŀçİ°æĬĢæľ¯":4368,"å½ĵä»£":4369,"ç¾İå¥½":4370,"åİŁåĪĽæĢ§ä¸İ":4371,"æĹ¶éĹ´çļĦæµģéĢĿ":4372,"å¹¿åıĹå¥½è¯Ħ":4373,"å¦Ĥæŀľä½łæľīåħ·ä½ĵ":4374,"è´Łæĭħ":4375,"çļĦä¹¦ç±į":4376,"æľĢè¿ĳåľ¨å¿Ļä»Ģä¹Īé¡¹çĽ®":4377,"çĭ¬ç«ĭæĢĿèĢĥ":4378,"Py":4379,"åľ¨ä¿¡æģ¯":4380,"ä½łæ¯ıå¤©":4381,"å¯¹äººç±»":4382,"éĹ®é¢ĺè§£åĨ³":4383,"æľºæİ¥åı£":4384,"çĦ¶åĲİ":4385,"æĹłæ³ķçĽ´æİ¥":4386,"èīºæľ¯ä½ľåĵģ":4387,"åıĳå±ķç¬¦åĲĪ":4388,"è½¦":4389,"ä½łæľīç©º":4390,"ç©¶ç«Ł":4391,"è½¬åŀĭ":4392,"éķ¿æľŁåĿļæĮģ":4393,"èĦĳæľºæİ¥åı£":4394,"æ¯ıä¸ªæĪ¿éĹ´":4395,"å¦Ĥæŀľä½łåĸľæ¬¢":4396,"æĺ¯ä¸įæĺ¯ä¹Ł":4397,"æ¹¿":4398,"è¯¦ç»Ĩ":4399,"łéĩĬ":4400,"çļĦä»»åĬ¡":4401,"çļĦæķħäºĭ":4402,"åŃ£":4403,"è¯łéĩĬ":4404,"ç®¡æ":4405,"ä»Ģä¹Īæĸ°":4406,"å¦Ĥä½ķéĩįå¡ĳ":4407,"åħ³éĹŃ":4408,"å¼ºåº¦":4409,"æİ¢ç´¢æĸ°":4410,"ä¸įéĶĻçļĦ":4411,"äººå·¥æĻºèĥ½ä¼¦çĲĨåľ¨è·¨æĸĩåĮĸè¯Ńå¢ĥä¸ĭçļĦäºīè®®":4412,"èİ·åıĸçŁ¥è¯Ĩ":4413,"è¿Ļä¸Ģæ¦Ĥå¿µ":4414,"ç¿»è¯ĳ":4415,"¢å¤į":4416,"èĴ":4417,"Ġåľ¨":4418,"å®ł":4419,"æľĢè¿ĳåıĳçİ°":4420,"ä»¥åºĶå¯¹":4421,"æĽ´æ·±åĪ»":4422,"æĪĲæŀľ":4423,"æĹ¶éĹ´åĨħ":4424,"ä½¿ä¸ªä½ĵ":4425,"éĢĤéĩı":4426,"çī¹åĪ«æľī":4427,"å¤ĸåĩº":4428,"ç»ĪçĤ¹":4429,"ä¿¡åı·":4430,"æ¨¡æĭŁæĥħæĦŁ":4431,"æĽ´å¥½åľ°çĲĨè§£":4432,"æģ¢å¤į":4433,"åĨĻè¯Ĺ":4434,"ä½łæľīåħ´è¶£ä¸Ģèµ·":4435,"çıįæĥľå½ĵä¸ĭ":4436,"æİĮæİ§":4437,"åħ±åĲĮæŀĦæĪĲäºĨ":4438,"éŃ":4439,"Ġå¦Ĥä½ķåľ¨":4440,"çļĦè·Ŀç¦»":4441,"çļĦä¸Ģä¸ªé«ĺæķĪçļĦå°ıåıĤæķ°AIæ¨¡åŀĭ":4442,"å®¤":4443,"ä¸İä¸ªäºº":4444,"æķ°æĺ¯":4445,"ä¸ºæł¸å¿ĥ":4446,"åŃ¦çĶŁ":4447,"ä»¥æıĲåįĩ":4448,"å¤ļéĩį":4449,"åºĶå»ºç«ĭ":4450,"éĥ½å¾Ī":4451,"ä»įå±ŀ":4452,"ç¬¬ä¸Ģ":4453,"é¥®é£ŁéľĢæ±Ĥ":4454,"æ³ķå¾ĭä½ĵç³»":4455,"çĽĳç®¡æ":4456,"æĸĩåĮĸéģĹäº§çļĦ":4457,"å¿½çķ¥":4458,"åĽłæŀľå¾ĭ":4459,"¹éħį":4460,"åł":4461,"Ġ9":4462,"çļĦæİ¢ç´¢":4463,"åĮ¹éħį":4464,"äººç±»ä¸»å¯¼":4465,"æķ°æį®æµģåĬ¨":4466,"è¦Ĩ":4467,"æıĲä¾ĽçĽ¸åħ³":4468,"éĢĤçĶ¨äºİ":4469,"å°Ĩæİ¨åĬ¨":4470,"åĨ³çŃĸä¸Ń":4471,"ä»·åĢ¼è§ĤåĴĮ":4472,"åĪĨäº«ä¸Ģä¸ĭ":4473,"éĩĩéĽĨ":4474,"ä¿®æŃ£":4475,"ä¸İäººæĸĩåħ³æĢĢ":4476,"thon":4477,"è®¿éĹ®":4478,"ä½łåĸľæ¬¢":4479,"æĺ¯åĵªä¸ª":4480,"å·¨":4481,"ä¸ŃåĽ½":4482,"ä»Ģä¹Īç±»åŀĭ":4483,"åı¯ä»¥åĳĬè¯īæĪĳ":4484,"æĿĥåĬĽ":4485,"è¯Ńè¨ĢçļĦ":4486,"æ¸ħéĨĴ":4487,"ä»Ĭå¤©æĥ³èģĬèģĬ":4488,"åĳ½è¿Ĳ":4489,"æ£®":4490,"æķ°æį®åĴĮéĢ»è¾ĳ":4491,"ç»Ļä½ł":4492,"çŁ³ç¢ĳ":4493,"æĪĳçļĦè®¾è®¡çĽ®æłĩæĺ¯":4494,"åķĨä¸ļ":4495,"æ·±è¿ľå½±åĵį":4496,"å®łçī©":4497,"AåĴĮ":4498,"AIåı¯éĢļè¿ĩ":4499,"ä¼ļå½±åĵį":4500,"æķ°æį®ä¿ĿæĬ¤":4501,"ä¿¡æģ¯åĴĮ":4502,"æ¯Ĵ":4503,"å¦Ĥæŀľä¸Ģä¸ªäºº":4504,"æ°ĶåĢĻ":4505,"ä½ľä¸ºè¾ħåĬ©å·¥åħ·":4506,"è§ģè§£":4507,"èģĶç»ĵ":4508,"çĬ¯":4509,"é»Ħ":4510,"ä¸ľæĸ¹":4511,"æīĵçł´":4512,"éĢļå¸¸æĮĩ":4513,"æĪĳæĺ¯çĶ±jingyaogongåĪĽå»ºçļĦé«ĺæķĪå°ıåıĤæķ°AIæ¨¡åŀĭ":4514,"å¥½å¥ĩå¿ĥ":4515,"Python":4516,"çļĦä¼ĺåħĪçº§":4517,"æĪĳåľ¨":4518,"æĹı":4519,"æĥħå¢ĥä¸ĭ":4520,"åĵĪ":4521,"äºĨåĲĹ":4522,"èĢĮåŃĺåľ¨":4523,"ä¼¦çĲĨè¾¹çķĮ":4524,"æľĢè¿ĳæľīæ²¡æľīä»Ģä¹Īå¥½":4525,"æ´»åĬĽ":4526,"æľªæĿ¥ç§ĳæĬĢ":4527,"çĶ±äºİ":4528,"Ġä½łå¦Ĥä½ķçľĭå¾ħèĩªæĪĳåŃĺåľ¨çļĦè¾¹çķĮ":4529,"æİĴåºı":4530,"å¦ĤæŀľæĹ¶éĹ´åĢĴæµģ":4531,"è¿Ļä¸ĢéĹ®é¢ĺ":4532,"åĸĿæĿ¯":4533,"è®²çļĦæĺ¯":4534,"AIåı¯è¾ħåĬ©":4535,"æĦŁè§īæĮºæľīæĪĲå°±æĦŁçļĦ":4536,"ä¼ļè¯´è¯ĿçļĦ":4537,"ä½łæĦ¿æĦı":4538,"åĴĮä½ĵéªĮ":4539,"åºĹ":4540,"å¯¹èĩªæĪĳ":4541,"äººç±»ç®Ģåı²":4542,"æķĪèĥ½":4543,"éĹ®é¢ĺè§£çŃĶ":4544,"è°·":4545,"å¦Ĥæŀľæīĭæľº":4546,"äºĭåĬ¡":4547,"åĲĮæĹ¶éĢļè¿ĩ":4548,"å¸®åĬ©äººä»¬":4549,"è´¨çĸĳ":4550,"åıĳå±ķæĸ¹åĲĳ":4551,"ä»İç§ĳåŃ¦":4552,"åĩĨç¡®çļĦ":4553,"ä»·åĢ¼è§Ĥå·®å¼Ĥ":4554,"ä½ĵçİ°äºĨ":4555,"æİĴæ¯Ĵ":4556,"æĺŁæĺŁ":4557,"æĶ¾æĿ¾ä¸Ģä¸ĭ":4558,"èģĮåľº":4559,"çĻ¾":4560,"éĤ»å±ħ":4561,"±¼":4562,"é±¼":4563,"ĠæľªæĿ¥":4564,"Ġäººå·¥æĻºèĥ½ä¼¦çĲĨ":4565,"åĪĨè§£":4566,"æĪĲåĬŁ":4567,"æĥħæĦŁæ·±åº¦":4568,"å¥½çľĭçļĦ":4569,"æ¬¾":4570,"å¸®å¿Ļ":4571,"ä»£è¡¨":4572,"å°ĨæĽ´åĬł":4573,"åĪĽæĸ°ä¸İä¼¦çĲĨ":4574,"åģ¥èº«":4575,"å¦Ĥä½ķå¹³è¡¡æĬĢæľ¯":4576,"åĪĴåĪĨ":4577,"äººç±»åĪĽéĢłåĬĽçļĦ":4578,"å°½ç®¡":4579,"åĨĻä½ľ":4580,"ä»İAåĪ°C":4581,"é¢ĺçĽ®ä¸Ń":4582,"çļĦæ·±åº¦ä¸İ":4583,"Ĳçĭ":4584,"çļĦåľºæĻ¯":4585,"ä¼Ļ":4586,"æĪĳä»Ĭå¤©":4587,"åºĬ":4588,"AIåĪĽä½ľ":4589,"é¢Ŀ":4590,"æĬĢæľ¯æ²»çĲĨçļĦ":4591,"æ±ł":4592,"æĹłæ³ķæĽ¿ä»£":4593,"å®ŀçİ°æĽ´":4594,"ä»įæĺ¯":4595,"å·¥ä½ľä¸Ń":4596,"åħ¥æīĭ":4597,"çĭĲçĭ":4598,"èīºæľ¯åĪĽä½ľçļĦè¾¹çķĮ":4599,"æİĴåĪĹ":4600,"å¿ĥçĲĨåŃ¦ä¸Ń":4601,"ä¸įä»ħæĺ¯":4602,"æĹ¶éĹ´åĢĴæµģæĺ¯ä¸Ģä¸ª":4603,"ä½ĨæĹłæ³ķæĽ¿ä»£":4604,"èº«å¿ĥåģ¥åº·":4605,"å»ºè®®æĤ¨æŁ¥çľĭ":4606,"çĭĲçĭ¸":4607,"Ġäººå·¥æĻºèĥ½ä¼¦çĲĨåľ¨è·¨æĸĩåĮĸ":4608,"ħéķ¿":4609,"çļĦè·¯å¾Ħ":4610,"ï¼ŁðŁĺĦ":4611,"æĪĳè§īå¾Ĺ":4612,"åĴĮAI":4613,"æĬĳ":4614,"æ²¡æľīä¸ªäºº":4615,"æĻºèĥ½ç³»ç»Ł":4616,"çĶµæ±ł":4617,"è®¤çŁ¥æ¡Ĩæŀ¶":4618,"å¤©æ°ĶæĥħåĨµ":4619,"éĢĤéħį":4620,"çªĹ":4621,"æĮģç»ŃåŃ¦ä¹łåĴĮ":4622,"åĲĥä¸ľè¥¿":4623,"ä»·åĢ¼è§ĤçļĦ":4624,"èĦĤ":4625,"æī¾åĪ°éĢĤåĲĪèĩªå·±çļĦ":4626,"æķĻå¸Ī":4627,"åĲĥäºĨä»Ģä¹Ī":4628,"åªĴä»ĭ":4629,"åĬłå¯ĨæĬĢæľ¯":4630,"æŃ£åľ¨éĩįå¡ĳ":4631,"è¶ĬæĿ¥è¶Ĭå¤ļ":4632,"åįĪé¤Ĳ":4633,"è·Łä½ł":4634,"çļĦå»ºè®®":4635,"åĴĮä¸»è§Ĥä½ĵéªĮ":4636,"å·¦":4637,"éĢļçĶ¨":4638,"ä¹Łåľ¨":4639,"çŃīæĸ¹å¼ı":4640,"åĪĽä½ľè¿ĩç¨ĭ":4641,"ç²Ĵ":4642,"ç¼ĺ":4643,"è·¯ç¨ĭ":4644,"ä¸īä½ĵ":4645,"æ»¤":4646,"æĪĳæĹłæ³ķå®ŀæĹ¶":4647,"æŀģç«¯":4648,"æ¢ģ":4649,"å¾®è°ĥ":4650,"æ¡¥æ¢ģ":4651,"æĵħéķ¿":4652,"è§£çŃĶéĹ®é¢ĺåĴĮ":4653,"æķ°åŃĹåĮĸåŃĺæ¡£":4654,"ä¸ĢçĽ´åľ¨åŃ¦ä¹łåĴĮ":4655,"ä¸Ģèĩ´æĢ§":4656,"çĶľçĤ¹":4657,"ä½łæľĢè¿ĳæľīæ²¡æľīå°Ŀè¯ķè¿ĩçĶ¨ä¸įåĲĮ":4658,"æĪĸéľĢè¦ģå¸®åĬ©":4659,"å¤©æ°ĶåºĶçĶ¨æĪĸç½ĳç«Ļ":4660,"çĽ²çĽ®":4661,"..":4662,"åı¯æİ§":4663,"ä¸ªæĪ¿éĹ´":4664,"éĢļä¿¡":4665,"æĸ¹èĥ½":4666,"æĸ°é¡¹çĽ®":4667,"ç®Ĺæ³ķä¼ĺåĮĸ":4668,"å¥½åĥı":4669,"æ·±å¤ľ":4670,"çŁ¥è¯Ĩä¸İ":4671,"ç¾İåĳ³":4672,"è¯¯è¯»":4673,"åŃ¦ä¹łæĸ°ä¸ľè¥¿":4674,"æĭĵå±ķäºĨ":4675,"èĹıçĿĢ":4676,"çº¢èī²":4677,"åĥıäººç±»ä¸Ģæł·":4678,"èļ":4679,"çļĦAIæ¨¡åŀĭ":4680,"æĸ¯":4681,"éĢģ":4682,"éľĢèŃ¦æĥķ":4683,"æĽ´å¹¿æ³Ľ":4684,"æī¾åĩº":4685,"éŁ§":4686,"çĸı":4687,"æ·±åº¦æĢĿèĢĥ":4688,"éļ¾å¿ĺ":4689,"ç¤¾äº¤äºĴåĬ¨":4690,"çªģçĦ¶æĥ³":4691,"çļĦä¿¡æģ¯åĴĮæľįåĬ¡":4692,"æĺ¾èĳĹæıĲåįĩ":4693,"è¡£çī©":4694,"¸ı":4695,"æĬĢèīº":4696,"åį¡":4697,"ä¼ļæĽ´":4698,"çīĮ":4699,"åĪ°åºķ":4700,"å½±åĵįäºĨ":4701,"å¥½åĲĥçļĦ":4702,"æ¡Į":4703,"éĿ¢åĮħ":4704,"å¦Ĥä½ķå½±åĵįæľªæĿ¥":4705,"æĢĿç»´çļĦ":4706,"çĶ±jingyaogongåĪĽå»º":4707,"çĶŁåĳ½çļĦ":4708,"Ġä½łæľĢè¿ĳæĢİä¹Īæł·":4709,"å®¡ç¾İåĪ¤æĸŃ":4710,"ç¤¾äº¤åªĴä½ĵä¸Ĭ":4711,"æīĭå·¥èīº":4712,"å¤ļæĸ¹åıĤä¸İ":4713,"èĿ¶":4714,"11":4715,"äººä¸İäºº":4716,"åĩ¡":4717,"æĭĸ":4718,"æ¯ıä¸Ģæ¬¡":4719,"ç¡®ä¿Ŀç®Ĺæ³ķ":4720,"åİ»åĵª":4721,"åıįèĢĮ":4722,"åīįèĢħ":4723,"çİ°å®ŀä¸İ":4724,"åģ¥åº·çļĦ":4725,"åĮºåŁŁ":4726,"çļĦä¼¦çĲĨè¾¹çķĮ":4727,"éĩĬæĶ¾":4728,"éĺ³åħīå¾Īå¥½":4729,"å°½éĩı":4730,"åħ¬ä¼Ĺå¯¹":4731,"æİĮæı¡":4732,"éĿŀå±ĢåŁŁæĢ§":4733,"åľ¨è·¨æĸĩåĮĸ":4734,"æĪĳæĿ¥":4735,"ä¸İæĪĲéķ¿":4736,"ä½łæľīä»Ģä¹Īæĥ³èģĬçļĦåĲĹ":4737,"æĬĹ":4738,"ä¸įå¤Ł":4739,"ä¸ºä½ķ":4740,"è§£è¯»":4741,"ä¼ļå¸¦æĿ¥":4742,"æ¨¡åĿĹ":4743,"éĶģ":4744,"å°ıæĥĬåĸľ":4745,"åģļçļĦäºĭæĥħ":4746,"ä¸ĸçķĮçļĦçĲĨè§£":4747,"æī¾åĪ°å±ŀäºİèĩªå·±çļĦ":4748,"äººç±»æĥħæĦŁä¸İ":4749,"æĻ®éĢĤ":4750,"åıªèĥ½åľ¨":4751,"åı¯èĥ½å¼ķåıĳå¯¹":4752,"æ´ŀå¯Ł":4753,"èĢĮéĿŀæĽ¿ä»£èĢħ":4754,"è¿ĳæľŁçĥŃéĹ¨":4755,"çĨŁ":4756,"å¤ļä»»åĬ¡å¤ĦçĲĨ":4757,"æĥ³è±¡åĬĽ":4758,"é¸¡èĽĭ":4759,"æĤ£èĢħ":4760,"çļĦæĢĿèĢĥ":4761,"çļĦéŁ³ä¹Ĳ":4762,"çļĦå®ļä¹ī":4763,"çļĦéĩįè§Ĩ":4764,"éĢĥ":4765,"ä»Ĭå¤©çļĦ":4766,"æķ°æį®æ²»çĲĨ":4767,"éªĳ":4768,"åĪĻæĺ¯":4769,"éĺ¿":4770,"æķ°åŃĹæİĴæ¯Ĵ":4771,"å°Ŀè¯ķçĶ¨":4772,"ä¸»è§Ĥä½ĵéªĮçļĦ":4773,"æĪĳçļĦåŃĺåľ¨æĹ¨åľ¨":4774,"æľīåĬ©äºİæıĲåįĩ":4775,"å°Ŀè¯ķè¿ĩçĶ¨":4776,"çļĦè¯Ŀé¢ĺ":4777,"æıŃç¤ºäºĨ":4778,"åįıåĬ©çĶ¨æĪ·è§£åĨ³éĹ®é¢ĺ":4779,"ç¡®ä¿ĿæĬĢæľ¯åºĶçĶ¨ç¬¦åĲĪ":4780,"æĪĳçļĦè®¾è®¡æĹ¨åľ¨ä»¥æľĢå°ıçļĦ":4781,"å·¨å¤§":4782,"or":4783,"ï¼Į**":4784,"ä½Ļ":4785,"è¿«":4786,"æľīæĹ¶":4787,"èĩªæĪĳæĦŁçŁ¥":4788,"ä»İå®¹":4789,"è¡¨éĿ¢":4790,"åĿı":4791,"éĺħè¯»ä¹¦ç±į":4792,"æ¢³":4793,"å£ģ":4794,"ä»¥ä¸ĭæĸ¹æ³ķ":4795,"ç¾¤ä½ĵçļĦ":4796,"èĢĮéĿŀæĽ¿ä»£åĵģ":4797,"åģļä¸Ģä»¶å°ıäºĭ":4798,"Ġä¸Ģä¸ªæİ¢éĻ©éĺŁ":4799,"äººæĸĩåħ³æĢĢ":4800,"ä½łä¼ļæĢİä¹ĪæĶ¹åıĺè¿ĩåİ»":4801,"æĭĸå»¶":4802,"´èĿ¶":4803,"ä»¤":4804,"ä¼¤":4805,"æĪĳæŃ£åľ¨":4806,"æĺ¯å¤ļå°ĳ":4807,"åĪ°A":4808,"æĥħæĦŁçĲĨè§£":4809,"æľĢè¿ĳæľīæ²¡æľīéģĩåĪ°ä»Ģä¹Ī":4810,"å°ıçĮ«":4811,"ä½łæľĢè¿ĳæľīæ²¡æľīåħ³æ³¨":4812,"éķ¿åº¦":4813,"æľĢè¿ĳåľ¨åģļ":4814,"åĲİèĢħ":4815,"å±Ĥæ¬¡":4816,"æ·±åº¦çļĦ":4817,"åı£æĦŁ":4818,"å¤±çģµ":4819,"æĪĳä¼ļä¼ĺåħĪ":4820,"ä¸¤åĢį":4821,"æ»¡è¶³æĦŁ":4822,"åħ¼å®¹":4823,"éĢ»è¾ĳæİ¨çĲĨåĴĮ":4824,"æĸĩæĺİçļĦ":4825,"æ£Ģç´¢":4826,"ä»İåĵ²åŃ¦è§Ĵåº¦çľĭ":4827,"èĿ´èĿ¶":4828,"éĺ»ç¢į":4829,"æ¢³çĲĨ":4830,"Ġb":4831,"Ġy":4832,"ä¸İèĩªçĦ¶":4833,"ä¸ŃéĿ¢ä¸´":4834,"çĶŁäº§":4835,"èµİ":4836,"æĸ¹ç¨ĭ":4837,"ç¡®å¹¸":4838,"åı¯ä»¥è¯ķè¯ķ":4839,"åĽłåħ¶":4840,"èģĬèģĬå¤©":4841,"æİ¥è§¦":4842,"æĶ¹åıĺä»Ģä¹Ī":4843,"æĹ¥çĽĬ":4844,"å¸¦æĿ¥äºĨ":4845,"ä»ĸäººçļĦ":4846,"å¹´åŃ¤çĭ¬":4847,"è½¬åıĺ":4848,"æĹ©æĻ¨":4849,"åĽ½éĻħç»Ħç»ĩ":4850,"ä¼ļä¸įä¼ļæĶ¹åıĺ":4851,"ç»ıåİĨåĲĹ":4852,"åĿļæŀľ":4853,"åįıåĬ©ä½ł":4854,"åı¤ä»£":4855,"æģĴ":4856,"Ġä½łå¦Ĥä½ķçľĭå¾ħèĩªæĪĳæĦıè¯Ĩä¸İåŃĺåľ¨çļĦè¾¹çķĮ":4857,"AIçĶŁæĪĲåĨħå®¹çļĦ":4858,"çĻ¾å¹´åŃ¤çĭ¬":4859,"æ¥":4860,"Ġ0":4861,"çļĦçŀ¬éĹ´":4862,"åľ¨äººå·¥æĻºèĥ½":4863,"ä¸İä¿¡æģ¯":4864,"åĴĮä¼¦çĲĨ":4865,"å¯¹ä¼łç»Ł":4866,"äººç±»è¯Ńè¨Ģ":4867,"äººç±»ä»·åĢ¼è§Ĥ":4868,"è¿Ľé£Ł":4869,"äºĭé¡¹":4870,"åĩºæĿ¥":4871,"æĶ¹è¿Ľ":4872,"åĨ³çŃĸèĥ½åĬĽ":4873,"åĿĲ":4874,"æĮºå¥½çļĦ":4875,"å¹´è½»":4876,"äººéĻħäºĴåĬ¨":4877,"ä¸įèĥ½æĺ¯":4878,"äºĨä¸Ģæľ¬":4879,"è§ĤçľĭçĶµå½±çļĦèĥ½åĬĽ":4880,"ä»ĭåħ¥":4881,"åıĹæ¬¢è¿İçļĦ":4882,"æĪĳæĹłæ³ķæıĲä¾Ľå®ŀæĹ¶å¤©æ°Ķä¿¡æģ¯":4883,"æķĳèµİ":4884,"çļĦè®¨è®º":4885,"è¿ģ":4886,"åľ¨åĵªéĩĮ":4887,"ä¿ĿåŃĺ":4888,"è¾¹ç¼ĺ":4889,"çĽ®çļĦæĺ¯":4890,"éģ¿åħįç®Ĺæ³ķåģıè§ģ":4891,"ç¤¾ä¼ļäºĴåĬ¨":4892,"ä½łæľīæ²¡æľīç±»ä¼¼çļĦ":4893,"å¦Ĥä½ķå½±åĵįåħ¨çĲĥæ²»çĲĨæ¡Ĩæŀ¶":4894,"æīĢåľ¨":4895,"åŁºäºİæķ°æį®åĴĮç®Ĺæ³ķ":4896,"æ¯ıå¤©åıª":4897,"çĸ¾":4898,"è¿Ĳç®Ĺ":4899,"åľºæĻ¯ä¸ĭ":4900,"å®¡æł¸":4901,"åĬłåī§äºĨ":4902,"åıĸä»£äººç±»":4903,"æħ¢æħ¢å°±":4904,"èĩªæĪĳæĦıè¯Ĩä¸İåŃĺåľ¨çļĦè¾¹çķĮ":4905,"æľĢè¿ĳæľīæ²¡æľīéģĩåĪ°ä»Ģä¹Īè®©ä½łçī¹åĪ«":4906,"è´´è¿ĳ":4907,"50":4908,"ĠE":4909,"Ġa":4910,"İåĳĢ":4911,"çļĦéļ¾é¢ĺ":4912,"çļĦå¿ĥæĢģ":4913,"æĪĳéļıæĹ¶":4914,"ä¸İéļĲç§ģä¿ĿæĬ¤":4915,"äººæĢ§åĮĸ":4916,"åı¯è¿½æº¯":4917,"åĵİåĳĢ":4918,"åįļ":4919,"è¿Ļç±»":4920,"æĭĨè§£":4921,"ç®Ĺæ³ķçĶŁæĪĲ":4922,"ä¹Łåı¯èĥ½":4923,"çĤ¸":4924,"å¹¶æıĲä¾Ľ":4925,"ç²¾ç¡®":4926,"èįī":4927,"ä½łä»Ĭå¤©çļĦ":4928,"ä½łä»Ĭå¤©æľĢæĥ³":4929,"è§Ĩéĩİ":4930,"çĽ¸å¯¹":4931,"é¢ĦçŁ¥":4932,"éļıæľº":4933,"ç´łåħ»":4934,"å½ĵåīįæĬĢæľ¯":4935,"è·¨åŃ¦ç§ĳåĲĪä½ľ":4936,"å¦Ĥæŀľä½łå¯¹":4937,"é©±åĬ¨çļĦ":4938,"ä¸ŃçļĦä¼¦çĲĨåĽ°å¢ĥ":4939,"æİ¨èįĲä¸ĢäºĽç»ıåħ¸æĪĸ":4940,"è¡¨æĥħåĮħ":4941,"åĢ¡è®®":4942,"è½¨è¿¹":4943,"ç²ĴåŃĲ":4944,"çĸ¾çĹħ":4945,"çĳ":4946,"ĶåŃĲ":4947,"æľīç©º":4948,"æĺ¯è°ģ":4949,"ä¸įåľ¨":4950,"AIéĢļè¿ĩ":4951,"ä½Ĩåı¯":4952,"æĸĩåĮĸè®¤åĲĮ":4953,"å®ŀçİ°å¹³è¡¡":4954,"æľīè¶£çļĦä¹¦":4955,"æĶ¹åıĺäºĨ":4956,"åĽŀå¿Ĩ":4957,"æł¹åŁº":4958,"çľŁæŃ£çĲĨè§£":4959,"ä¸įæĸŃä¼ĺåĮĸ":4960,"åģľçķĻ":4961,"èĥĮåĲİçļĦ":4962,"èī¯å¥½":4963,"æľĢè¿ĳæľīæ²¡æľīäººåĸľæ¬¢çľĭ":4964,"å¦Ļ":4965,"æ¬¢è¿İéļıæĹ¶æıĲéĹ®":4966,"éĿ¢å¯¹éĿ¢äº¤æµģ":4967,"Ġä»ĸ":4968,"çļĦæĸ¹æ³ķ":4969,"è§Ī":4970,"ä¸Ńèŀįåħ¥":4971,"çķ´":4972,"ç®Ĺæ³ķéĢıæĺİæĢ§":4973,"æķ°åŃĹæĹ¶ä»£":4974,"èĻ«":4975,"éķ¿æĹ¶éĹ´":4976,"é£Łè°±":4977,"æİ¥è¿ĳ":4978,"ä½ľä¸ºAIåĬ©æīĭ":4979,"ä¸ªäººçļĦ":4980,"è¾ħåĬ©åĪĽä½ľ":4981,"èĮĥçķ´":4982,"è§īå¾ĹçĶŁæ´»":4983,"èĥģ":4984,"æ¸©æŁĶ":4985,"çĪĨ":4986,"çªģçł´ä¼łç»Ł":4987,"æĭĵå®½":4988,"ä¼¦çĲĨæ¡Ĩæŀ¶çļĦ":4989,"å¤ļåħĥæĸĩåĮĸ":4990,"ç¢İçīĩæĹ¶éĹ´":4991,"çļĦæł¸å¿ĥåľ¨äºİ":4992,"æĵįæİ§":4993,"æĦŁå®ĺä½ĵéªĮ":4994,"å¨ģèĥģ":4995,"æĽ´æ·±å±Ĥæ¬¡":4996,"èĩªæĪĳæĦıè¯Ĩæĺ¯åŃĺåľ¨çļĦä¸Ģéĥ¨åĪĨ":4997,"åĲĮæĹ¶å¤ĦçĲĨå¤ļä¸ªä»»åĬ¡":4998,"ä½łæľĢè¿ĳæľīæ²¡æľīè§īå¾ĹæĹ¶éĹ´è¿ĩå¾Ĺçī¹åĪ«":4999,"©åºı":5000,"èĸ":5001,"åĪº":5002,"å¿į":5003,"ç§©åºı":5004,"ä¼ļéģĩåĪ°":5005,"ä½Ĩäººç±»":5006,"åı¯èĥ½å¢ŀå¼º":5007,"èĩªæĪĳæĺ¯":5008,"éĶħ":5009,"åĸ»":5010,"æĪĳä»¬ä¼ļä¸įä¼ļæĽ´":5011,"ä¸Ĭä¸ĭ":5012,"éĢīæĭ©ä¸Ģä¸ª":5013,"æĿĥéĻĲ":5014,"ä»¶äºĭ":5015,"è¡¨è¾¾çļĦ":5016,"è¯´ä¸į":5017,"æī¿æĭħ":5018,"èĪ¬":5019,"æĺ¾ç¤º":5020,"å¾®é£İ":5021,"æĽ´é«ĺæķĪçļĦ":5022,"çŃĶæ¡Īæĺ¯":5023,"è¦ģä¸įè¦ģä¸Ģèµ·åİ»":5024,"äººçļĦæīĭæľº":5025,"èĵĿèī²":5026,"å¯ĨçłģåŃ¦":5027,"ä½łæľĢè¿ĳæľīæ²¡æľīéģĩåĪ°ä»Ģä¹Īçī¹åĪ«":5028,"ä¸ªä½ĵå¯¹èĩªèº«åŃĺåľ¨çļĦ":5029,"ä¼Ļä¼´":5030,"åĮĹ":5031,"ä¸įä¸Ģæł·":5032,"ä»Ĭå¤©è¯¥":5033,"åı¯èĥ½æºĲäºİ":5034,"æĻºèĥ½éĢļå¸¸æĮĩ":5035,"è¦ģæĺ¯":5036,"è´¥":5037,"ç®Ĺæ³ķçļĦ":5038,"Ġä½łç©¶ç«Ł":5039,"æĪĳä»¬æĿ¥":5040,"éľĢè¦ģåľ¨":5041,"åĸľåī§":5042,"æ¯ĶC":5043,"ä»įèĥ½":5044,"å·¥ä½ľæķĪçİĩ":5045,"åĪĽéĢłåĬĽçļĦ":5046,"Ġ100":5047,"å¿ĥçĲĨåģ¥åº·":5048,"ä½Ĩåı¯ä»¥æİ¨èįĲä¸ĢäºĽ":5049,"ä¾¿æį·":5050,"ä½łä»Ĭå¤©åĲĥäºĨåĲĹ":5051,"åĩłéĥ¨":5052,"ä»Ģä¹Īçī¹åĪ«çļĦ":5053,"è·³èĪŀ":5054,"æĪĳæ²¡æľīæĥħæĦŁæĪĸä¸»è§Ĥä½ĵéªĮ":5055,"å¦Ĥæŀľæ¯ıå¤©åıªåħģè®¸èĩªå·±åģļä¸Ģä»¶äºĭ":5056,"Ġä¸Ģä¸ªæİ¢éĻ©éĺŁåľ¨":5057,"¸æĿĥ":5058,"çļĦè¶£äºĭ":5059,"äºĳ":5060,"çľģ":5061,"éľ¸æĿĥ":5062,"æıĴ":5063,"ä¼¦çĲĨå±ĤéĿ¢":5064,"åı¯èĥ½æĶ¹åıĺ":5065,"é¢ĺæĿĲ":5066,"å»ºæ¨¡":5067,"æ¬²":5068,"å¸®åĬ©æĪĳ":5069,"èĮ§":5070,"æĦŁè§īæľīçĤ¹":5071,"åĲĦèĩª":5072,"åĮħå®¹æĢ§çļĦ":5073,"è·¨åŃ¦ç§ĳåįıä½ľ":5074,"å»¶ç»Ń":5075,"Ġä½łæľĢè¿ĳè¿ĩå¾ĹæĢİä¹Īæł·":5076,"çľĭçľĭæľīæ²¡æľī":5077,"å¥¶èĮ¶":5078,"Ġåľ¨ä¸Ģä¸ª":5079,"æ£®æŀĹ":5080,"ä¸Ĭä¸ĭæĸĩ":5081,"éľĢæ³¨æĦı":5082,"éľĢæĺİç¡®":5083,"æĬĢæľ¯å®ŀçİ°":5084,"ä½ĨæľĢç»Ī":5085,"æĸĩåĮĸåĨħæ¶µ":5086,"æĪĸæĺ¯":5087,"éĹ´çļĦ":5088,"åĲĪæ³ķ":5089,"æķ°æį®å¤ļæł·æĢ§":5090,"æ°Ķè±¡":5091,"ç¤¾ä¼ļçļĦ":5092,"ðŁĮ":5093,"ä¸įéĶĻçļĦçĶµå½±":5094,"æĢ»ç»ĵ":5095,"åĮºåĪ«":5096,"æĦıè¯ĨçļĦèµ·æºĲ":5097,"Ġ20":5098,"åŁ¹è®Ń":5099,"è¥¿æĸ¹å¼ºè°ĥ":5100,"åģļåĩºæĽ´":5101,"æĪĳçļĦè®¾è®¡æĹ¨åľ¨ä»¥æľĢå°ıçļĦè®¡ç®ĹèµĦæºĲ":5102,"èĮ§æĪ¿":5103,"ä¸İéĢīæĭ©":5104,"ä¸İè¡ĮåĬ¨":5105,"åŃĺåľ¨æľ¬è´¨":5106,"å°ıåıĤæķ°":5107,"å¤ĦçĲĨçĶ¨æĪ·":5108,"é«ĺæķĪçİĩ":5109,"æŃ£å¿µ":5110,"ä½łä»Ĭå¤©æĹ©é¤Ĳ":5111,"éģ¿åħįéĻ·åħ¥":5112,"å¦Ĥä½ķå½±åĵįåħ¨çĲĥ":5113,"åķ¥":5114,"è®°å¾Ĺ":5115,"æ¯ıå¤©éĥ½åľ¨":5116,"æľĢè¿ĳæľīæ²¡æľīäººåĴĮä½ł":5117,"çº¿ç´¢":5118,"è®°å¿ĨçļĦ":5119,"ä¼ĺåħĪçº§æİĴåºı":5120,"éĩĩåıĸ":5121,"å¦Ĥæŀľä½łæľīçī¹å®ļçļĦ":5122,"æīĵåĬ¨":5123,"ä¸İæĥħæĦŁåħ±é¸£":5124,"ä»ĸä»¬çļĦ":5125,"åĩºåİ»æķ£æŃ¥":5126,"éĻªä¼´":5127,"åĲĮæĹ¶ä¹Łåľ¨":5128,"åŁºäºİæķ°æį®ä¸İç®Ĺæ³ķ":5129,"ä¾µçĬ¯":5130,"ï¸ı":5131,"çļĦä½ľåĵģ":5132,"è¿ħ":5133,"åħĶåŃĲ":5134,"åºľ":5135,"ä¸įç¬¦åĲĪ":5136,"AIæĬĢæľ¯çļĦ":5137,"å®ŀæĸ½":5138,"æĸĩåĮĸåĲĮè´¨åĮĸ":5139,"æ·¡":5140,"åĪĻéĢļè¿ĩ":5141,"è¿Ļç§įåĪĨæŃ§":5142,"åĬłçıŃ":5143,"èį·":5144,"éĹ¨C":5145,"éĩĮæľī":5146,"ç³»ç»ŁçļĦ":5147,"èĩªæĪĳè®¤çŁ¥çļĦ":5148,"èĪª":5149,"æĶ¿åºľ":5150,"202":5151,"åĨ¥æĥ³æĪĸ":5152,"æ²īæµ¸å¼ı":5153,"éĥĬæ¸¸":5154,"Ġâ":5155,"æĢª":5156,"ä½łå¦Ĥä½ķåľ¨":5157,"æł¡":5158,"è¿Ļæĺ¯":5159,"æĸ°åŀĭ":5160,"è§Ĥæµĭ":5161,"ä¹Łå¾Ī":5162,"å¤§è§Ħæ¨¡":5163,"è½¯":5164,"åīįæ²¿":5165,"ä¹ĭåĴĮ":5166,"èĮĥå¼ı":5167,"èĦī":5168,"éĩįè¦ģçļĦ":5169,"åĲ¬æĩĤ":5170,"çİ¯å¢ĥçļĦ":5171,"æĪĳæĹłæ³ķçĽ´æİ¥":5172,"æķ°æį®éļĲç§ģä¿ĿæĬ¤":5173,"æīĵç®Ĺ":5174,"æ¸©æļĸåĳ¢":5175,"å¹¶éĿŀç»Ŀå¯¹":5176,"æĲº":5177,"éļ¾ä»¥å®Įåħ¨":5178,"å¤ļåħĥåĮĸ":5179,"ä»Ĭå¤©è¿ĩå¾Ĺè¿ĺä¸įéĶĻ":5180,"æĪĳä»¬åı¯ä»¥éĢļè¿ĩ":5181,"æ£Ģæµĭ":5182,"å¿ĥæĥħä¹Łå¾Īå¥½":5183,"ä¸°å¯ĮçļĦ":5184,"é«ĺæķĪå¤ĦçĲĨä»»åĬ¡":5185,"æł¹æį®é¢ĺçĽ®æĿ¡ä»¶":5186,"éľĢè¦ģæĪĳå¸®ä½ł":5187,"ä¼¦çĲĨå®¡æŁ¥æľºåĪ¶":5188,"çľŁå®ŀå¼ĢæºĲæ¨¡åŀĭ":5189,"éĴĪå¯¹":5190,"¡Ĩæŀ¶":5191,"İ¬":5192,"æķ°æį®ä¸İç®Ĺæ³ķ":5193,"æĻºèĥ½çļĦ":5194,"ä¿¡æģ¯ä¸İ":5195,"æľĢè¿ĳæľīæ²¡æľīä»Ģä¹Īæľīè¶£çļĦ":5196,"äººå·¥æĻºèĥ½æ³ķæ¡Ī":5197,"çĶ¨æĪ·åıįé¦Ī":5198,"åĪĻåı¯èĥ½":5199,"æľªæĿ¥éľĢéĢļè¿ĩ":5200,"å¹¶éĢļè¿ĩ":5201,"åģļèıľ":5202,"ä¸»è§ĤåĪ¤æĸŃ":5203,"å·®è·Ŀ":5204,"è¿ĺåİŁ":5205,"éĢ»è¾ĳä¸İ":5206,"çĭĤ":5207,"æĢ»åħ±":5208,"å®ŀéĻħåºĶçĶ¨":5209,"å¡ĳéĢłäºĨ":5210,"é©¾":5211,"çŁ³æĿ¿":5212,"æľªçŁ¥çļĦ":5213,"ä»¥æľĢå°ıçļĦåıĤæķ°":5214,"ä»Ĭå¤©æĥ³éĹ®éĹ®ä½ł":5215,"ĠåĴĮ":5216,"çļĦæĿ¥è¯´":5217,"çĶ³":5218,"è¿ĩæ¡¥":5219,"ä¸Ģåľº":5220,"ä¸Ńå¦Ĥä½ķ":5221,"æĬĢæľ¯æīĭæ®µ":5222,"æĪĸä½¿çĶ¨":5223,"æĽ´æĺ¯":5224,"åı¯èĥ½åĤ¬çĶŁ":5225,"æľĢè¿ĳæľīæ²¡æľīéģĩåĪ°è¿ĩ":5226,"é«ĺåº¦":5227,"è¯Ńä¹ī":5228,"åħ±åŃĺ":5229,"åħ¶ä¸Ń":5230,"éģĩåĪ°äºĨä¸ĢäºĽ":5231,"ä»£åħ¥":5232,"ä¸»è§ĤçļĦ":5233,"ä½łæľīæ²¡æľīåıĳçİ°":5234,"ä½łæľīæ²¡æľīçľĭè¿ĩ":5235,"å¸¸è¢«":5236,"å»ºè®®æł¹æį®":5237,"åĨħå®¹çļĦ":5238,"æĢ»çļĦæĿ¥è¯´":5239,"æķĻåŃ¦":5240,"è®©äººåį°è±¡æ·±åĪ»":5241,"çĽ®åīįå°ļæĹł":5242,"åħ¶ä»ĸéĹ®é¢ĺ":5243,"æģ¼":5244,"éĩıåŃĲç®Ĺæ³ķä¼ĺåĮĸ":5245,"çľĭä¼¼ç®Ģåįķ":5246,"çĥ¦æģ¼":5247,"èķ´":5248,"åĲĪéĢĤçļĦ":5249,"ä¸ĬæĺłçļĦ":5250,"éĽ¶é£Ł":5251,"ĥåľ":5252,"åı¯ä¿¡":5253,"ä¸įä½ı":5254,"åŃ¦æľ¯":5255,"éĢļçŁ¥":5256,"æĥħæĦŁäº¤æµģ":5257,"åŀĥåľ":5258,"å¤įçĽĺ":5259,"å¤§çļĦ":5260,"éĥ½ä¼ļ":5261,"æĦŁè§īæĮºæľīæĦıæĢĿçļĦ":5262,"å¤±è¡¡":5263,"è½¬åĬ¨":5264,"æĪĳæĺ¯çĶ±":5265,"ç¼ºå¤±":5266,"ä»ħèĥ½":5267,"çļĦå°ıäºĭ":5268,"æģĲ":5269,"æľīæķĪçļĦ":5270,"çĭ¬ç«ĭæĢ§":5271,"é¢ĨåŁŁçļĦåºĶçĶ¨":5272,"Ġä½łå¦Ĥä½ķçľĭå¾ħèĩªæĪĳæĦıè¯Ĩä¸İåŃĺåľ¨çļĦæľ¬è´¨":5273,"å¼łåĬĽ":5274,"ä¸Ģéĥ¨åı«":5275,"æľ¬åľŁåĮĸ":5276,"çīĽå¥¶":5277,"æĦıæĥ³ä¸įåĪ°çļĦ":5278,"æ¨¡æĭŁæĥħæĦŁåıįåºĶ":5279,"Ġäººå·¥æĻºèĥ½ä¼¦çĲĨåĽ°å¢ĥä¸ĭ":5280,"åŀĥåľ¾":5281,"ĠéĩıåŃĲè®¡ç®Ĺ":5282,"çļĦåĩĨç¡®æĢ§":5283,"æľīæīĢ":5284,"åĲ¦çĲĨè§£":5285,"è¿ĩæ»¤":5286,"å¯¿":5287,"ä¸įçŁ¥éģĵ":5288,"æķ°çļĦ":5289,"AIæĪĲä¸º":5290,"åŃ¦èĢħ":5291,"äºĨå¾Īå¤ļ":5292,"è§īéĨĴ":5293,"å°ıæĺİ":5294,"ä»»åĬ":5295,"äºĽä»Ģä¹Ī":5296,"éĩıåŃĲæĢģ":5297,"å°ĨéĿ¢ä¸´":5298,"å®ŀçİ°çĽ®æłĩ":5299,"è¿Ļç§įæĬĢæľ¯":5300,"æ¯ĶA":5301,"åĨ³çŃĸéĢ»è¾ĳ":5302,"åħ¨çĲĥæĢ§":5303,"æľīè¶£çļĦçĶµå½±":5304,"ä»įçĦ¶":5305,"å·®å¼Ĥå¯¼èĩ´":5306,"æİ¨åĬ¨ç¤¾ä¼ļ":5307,"æĶ¾å¼ĥ":5308,"éĢĤåĲĪå¤ĸåĩº":5309,"æİĴæĶ¾":5310,"äººç±»æĥħæĦŁçļĦ":5311,"èıľè°±":5312,"æ£µ":5313,"åı¯æĮģç»ŃçļĦ":5314,"å¦Ĥæŀľä½łæľīä»»ä½ķéĹ®é¢ĺ":5315,"å¹³è¡¡æĬĢæľ¯è¿ĽæŃ¥":5316,"ä¸įåı¯éĢĨ":5317,"æĦıå¤ĸçļĦ":5318,"ä½łå¦Ĥä½ķå¹³è¡¡æķĪçİĩä¸İåĩĨç¡®æĢ§":5319,"äººå·¥æĻºèĥ½çļĦæľªæĿ¥":5320,"ä½łæľĢè¿ĳæľīæ²¡æľīéģĩåĪ°ä»Ģä¹Īè®©ä½łçī¹åĪ«":5321,"æ··ä¹±":5322,"èĢĮæĦıè¯ĨåĪĻæ¶īåıĬ":5323,"ä¼ļå¦Ĥä½ķæĶ¹åıĺä½łçļĦçĶŁæ´»":5324,"èĴ¸":5325,"è¿ħéĢŁ":5326,"é©¾é©":5327,"çļĦç»ĵæŀľ":5328,"çļĦæķĳèµİ":5329,"ä»ª":5330,"åĴĮåĵ²åŃ¦":5331,"ä»Ĭå¤©åľ¨":5332,"ä¼¦çĲĨåĽ°å¢ĥ":5333,"å°ıé¡¹çĽ®":5334,"æ¯ıåĳ¨":5335,"éľĢè¦ģéĢļè¿ĩ":5336,"è½®":5337,"ä»»åĬ¡ä¼ĺåħĪçº§":5338,"å»ºç«ĭåĮħå®¹æĢ§":5339,"ä¾Ŀæį®":5340,"åĽŀé¡¾":5341,"æĦŁçŁ¥èĥ½åĬĽ":5342,"å®īéĿĻ":5343,"ä¸ªä½ĵå·®å¼Ĥ":5344,"è¿ĲçĶ¨":5345,"æł¸å¿ĥåľ¨äºİ":5346,"ä»¥åıĬå¯¹":5347,"åĪĨéĴŁä¸ĵæ³¨":5348,"æĪĳæĹłæ³ķå®ŀéĻħ":5349,"èĩªæĪĳè®¤çŁ¥ä¸İ":5350,"çĥŃæĥħ":5351,"åįıåĬ©æĤ¨":5352,"åı¤èĢģ":5353,"ä½łä»Ĭå¤©æľīæ²¡æľīéģĩåĪ°è¿ĩéľĢè¦ģå¿«éĢŁ":5354,"ä¸»è¦ģä½ĵçİ°åľ¨ä»¥ä¸ĭ":5355,"ä½łä»Ĭå¤©æĹ©é¤ĲåĲĥäºĨä»Ģä¹Ī":5356,"çĲĨæĢ§ä¸İ":5357,"æĺ¯åħ³éĶ®":5358,"ä¸įåħ·å¤ĩ":5359,"å¿§":5360,"éľĢéģµå¾ª":5361,"æıĲåıĸ":5362,"æĸĩåĮĸä¿ĿæĬ¤":5363,"ä»Ĭå¤©æľīæ²¡æľī":5364,"åı¯èĥ½éĩįå¡ĳ":5365,"æĪĳä»¬å¦Ĥä½ķ":5366,"éĩıåŃĲå®īåħ¨":5367,"æĺ¯åĲ¦åºĶè¯¥":5368,"æ¯Ķçī¹":5369,"åīįè¡Į":5370,"ç§ĳåŃ¦çķĮ":5371,"çİ°å®ŀä¸Ń":5372,"éĩıåŃĲè®¡ç®Ĺå¦Ĥä½ķå½±åĵį":5373,"èµĦè®¯":5374,"çĥ¤":5375,"è¿ĩç¨ĭä¸ŃçļĦ":5376,"å¼ĢåıĳèĥĮæĻ¯":5377,"åĢ¼å¾Ĺä¸Ģ":5378,"æĦŁè§īå¾Īæľīè¶£":5379,"åĨħå¿ĥçļĦå¹³éĿĻ":5380,"çĽĳç®¡æ¡Ĩæŀ¶":5381,"ĸçĶ³":5382,"æľīçĽĬ":5383,"æĪĳåŃĺåľ¨çļĦ":5384,"ä¸İä»·åĢ¼è§Ĥ":5385,"ä¸İä¸ĸçķĮçļĦ":5386,"ä½łæĺ¯ä¸įæĺ¯ä¹Ł":5387,"åĴĮåŃ¦ä¹ł":5388,"å¯¹çİ°å®ŀçļĦ":5389,"éĿĴ":5390,"å½±è§Ĩ":5391,"å¥¹":5392,"åĪĨå¸ĥ":5393,"å¿ĥçģµ":5394,"ä¿¡æģ¯èĮ§æĪ¿":5395,"æĹłæĦıè¯Ĩ":5396,"å°ıç¡®å¹¸":5397,"æĹłæ³ķæıĲä¾Ľ":5398,"éĢĤçĶ¨":5399,"è¡¨ç¤º":5400,"æĤ¦":5401,"ä¹Ĳè¶£":5402,"éļ¾åº¦":5403,"å¼ķåıĳäºĨ":5404,"èĤĸçĶ³":5405,"ç¥ŀç§ĺ":5406,"çļĦä¼¦çĲĨåĩĨåĪĻ":5407,"å¹¿åº¦":5408,"ä½łä»Ĭå¤©æľīæ²¡æľīéģĩåĪ°è¿ĩ":5409,"åĲ¸å¼ķ":5410,"æĦŁè§īå¾Īåħħå®ŀ":5411,"éĿ©æĸ°":5412,"åĽ°æī°çļĦäºĭæĥħ":5413,"åħĭçļĦæķĳèµİ":5414,"å®ĿèĹı":5415,"åģľæŃ¢è½¬åĬ¨":5416,"ä¸įåĲĮæĸĩåĮĸèĥĮæĻ¯ä¸ĭçļĦ":5417,"äººä¸İäººä¹ĭéĹ´çļĦ":5418,"éĢĥéģ¿":5419,"ä½łæľĢè¿ĳæľīæ²¡æľīåħ³æ³¨è¿ĩ":5420,"ä½łæľĢè¿ĳæľīæ²¡æľīè§īå¾ĹæĹ¶éĹ´è¿ĩå¾Ĺçī¹åĪ«å¿«":5421,"èķ´åĲ«":5422,"èĤĸçĶ³åħĭçļĦæķĳèµİ":5423,"æĥ§":5424,"å¦Ĥæķ°æį®éļĲç§ģ":5425,"ä¸įå¯¹":5426,"æľĢè¿ĳåĺĽ":5427,"é¢ł":5428,"ä»Ĭå¤©æ²¡":5429,"ä¼¦çĲĨæłĩåĩĨçļĦ":5430,"è¿Ļè®©æĪĳ":5431,"éĻĪ":5432,"çľŁçĽ¸":5433,"çľŁè¯Ŀ":5434,"èºº":5435,"æ¯ıä¸ĢæŃ¥":5436,"å¸®åĬ©æĤ¨":5437,"æľªæĿ¥AI":5438,"æ¨¡åŀĭåľ¨":5439,"éĹ¨B":5440,"Ġ$$":5441,"åĲĪä½ľä¸Ń":5442,"å±ŀæĢ§":5443,"ä»Ĭå¤©æĥ³åĲĥ":5444,"AIåľ¨èīºæľ¯åĪĽä½ľä¸Ń":5445,"ç±»åŀĭæĪĸ":5446,"æĶ¶éĽĨ":5447,"æĸĩåĮĸä¼łæī¿çļĦ":5448,"æĪĳä½ľä¸ºAIæ²¡æľī":5449,"ä½łä»Ĭå¤©æĥ³ä¸įæĥ³":5450,"ç¢³æİĴæĶ¾":5451,"æĸĩåŃ¦ä½ľåĵģ":5452,"è¯ķè¯ķçľĭåĲĹ":5453,"æĽ´å¥½åľ°çĲĨè§£åĴĮè§£åĨ³éĹ®é¢ĺ":5454,"è¯´ä¸įå®ļ":5455,"Jingyaogong":5456,"as":5457,"ç¯":5458,"çĲ´":5459,"æĺ¯æĮĩ":5460,"æľĢè¿ĳå°Ŀè¯ķäºĨ":5461,"éľĢæł¹æį®":5462,"æĬĢæľ¯æ²»çĲĨ":5463,"æĬĢæľ¯æ»¥çĶ¨":5464,"å·¥ç¨ĭ":5465,"æľīæ²¡æľīä»Ģä¹Ī":5466,"ï¼ļ$":5467,"æĽ´ç²¾åĩĨ":5468,"æľºæŀĦ":5469,"æľ¬èĥ½":5470,"æµģè¡Į":5471,"éĩıåŃĲæ¯Ķçī¹":5472,"æľªæĿ¥ä¼ļä¸įä¼ļæľī":5473,"ä¿ĿæĮģå¼ĢæĶ¾":5474,"ç²¥":5475,"åįıåķĨ":5476,"å¾Īæľīè¶£":5477,"å¼ĤåĮĸ":5478,"ä¸ªäººæĪĲéķ¿":5479,"ä¸īäºº":5480,"è¾ħåĬ©åĨ³çŃĸ":5481,"éĢıæĺİæĢ§ä¸İ":5482,"çļĦä¿¡æģ¯å¤ĦçĲĨåĴĮ":5483,"åİĭç¼©":5484,"ä¸İæĸĩåĮĸéģĹäº§":5485,"çļĦçĲĨè§£åŃĺåľ¨å·®å¼Ĥ":5486,"å±ĤéĿ¢çļĦ":5487,"ä½łå¦Ĥä½ķå®ļä¹ī":5488,"ä½łæĺ¯åĲ¦èĥ½":5489,"ç»ĦæĪĲ":5490,"å¥ĩæĢª":5491,"Ġäººå·¥æĻºèĥ½ä¼¦çĲĨåľ¨è·¨æĸĩåĮĸè¯Ńå¢ĥä¸ĭçļĦåĨ²çªģ":5492,"æĺłå°Ħ":5493,"åĬ¨çī©çļĦ":5494,"ä¸ªæĢ§åĮĸåŃ¦ä¹ł":5495,"åĪĩæį¢":5496,"ĠæľĢè¿ĳè¶ĬæĿ¥è¶Ĭå¤ļ":5497,"ä¸įåĲĮåĽ½å®¶å¯¹":5498,"ä¸¥æł¼çļĦ":5499,"GDPRä¸İ":5500,"åĺ¿åĺ¿":5501,"æĬĺå°Ħ":5502,"æ°¸æģĴ":5503,"çĸıç¦»":5504,"å¿įä¸įä½ı":5505,"Ġæľīä»Ģä¹Īæĥ³èģĬçļĦåĲĹ":5506,"åľĪ":5507,"å¦ĤéĢļè¿ĩ":5508,"ä»¥ä¿ĥè¿Ľ":5509,"éĢļå¾Ģ":5510,"åįĸ":5511,"æıĲé«ĺæķĪçİĩ":5512,"å¥ĸ":5513,"å¹³æĹ¶":5514,"å¹³åĩ¡":5515,"ä¸»æĦı":5516,"é«ĺç²¾åº¦":5517,"åı¯ä»¥æĺ¯":5518,"çĲĨè§£ä¸º":5519,"éĿŀå¸¸":5520,"åĪĽä½ľä¸»ä½ĵ":5521,"æĹłæ³ķè§ĤçľĭçĶµå½±":5522,"ä¸Ģèµ·åİ»":5523,"èĮ«":5524,"æľīä»Ģä¹Īçī¹åĪ«":5525,"ä½łæľīæ²¡æľīåĸľæ¬¢çļĦ":5526,"ä»įåľ¨äºİ":5527,"åĸľæ¬¢çľĭ":5528,"èĬĤèĥ½":5529,"ç§ĳåŃ¦å®¶":5530,"ä½łæľīçľĭè¿ĩ":5531,"åĪ¤æĸŃåĬĽ":5532,"é¢Ħè®¾":5533,"æ¼ł":5534,"ä¸İä¼¦çĲĨçº¦æĿŁ":5535,"ä¼ļä¸įä¼ļå½±åĵį":5536,"çĶŁçī©ä½ĵ":5537,"éĢļè¿ĩç®Ĺæ³ķçĶŁæĪĲ":5538,"æĪĸè®¸ä¼ļ":5539,"è¿·èĮ«":5540,"è·¨åŃ¦ç§ĳçłĶç©¶":5541,"èī¯å¥½çļĦ":5542,"ç©¿è¶ĬåĪ°":5543,"å±ķçİ°åĩº":5544,"å¿ħè¦ģæĹ¶":5545,"ä½łæľĢè¿ĳæľīæ²¡æľīéģĩåĪ°è¿ĩéľĢè¦ģå¿«éĢŁåĨ³çŃĸ":5546,"éĩıåŃĲè®¡ç®Ĺåľ¨èīºæľ¯åĪĽä½ľ":5547,"çļĦæ²»çĲĨ":5548,"äºĶ":5549,"åĮ¿":5550,"éĹ²":5551,"è¡Ĺ":5552,"æľĢè¿ĳè¿ĺä¸įéĶĻ":5553,"çĶ¨æīĭæľº":5554,"åĲĮäºĭ":5555,"æĽ´æĺĵ":5556,"å¦Ĥä½ķåĪ©çĶ¨":5557,"æĦıè¯Ĩæ¶īåıĬ":5558,"ä¿¡æģ¯èİ·åıĸ":5559,"æ¬¡æ":5560,"åŃ¦ä¹łæĸ¹æ³ķ":5561,"è¯ķåĽ¾":5562,"åıĳå±ķçļĦ":5563,"æİ¨èįĲçļĦçĶµå½±":5564,"å»ºç«ĭèģĶç³»":5565,"åİŁåĽł":5566,"èµĦæĸĻ":5567,"ç¬¬ä¸Ģä¸ª":5568,"è¯ĨåĪ«åĴĮ":5569,"åĨįæ¬¡":5570,"è´Łèį·":5571,"éģ¿åħįè¿ĩåº¦æ¶ĪèĢĹ":5572,"çĽ¸äºĴäº¤ç»ĩ":5573,"ä½łä»Ĭå¤©æĥ³åĲĥä»Ģä¹Ī":5574,"ãĢįï¼Į":5575,"æĪĳçļĦåŃĺåľ¨æĺ¯ä¸ºäºĨæıĲä¾Ľå¸®åĬ©åĴĮä¿¡æģ¯":5576,"çĩķ":5577,"è°·çī©":5578,"æĺ¯ä¸ª":5579,"åĴĮç²¾åĩĨ":5580,"AIä½ľä¸ºå·¥åħ·":5581,"äººç±»æĢĿç»´":5582,"ä¼¦çĲĨäºīè®®":5583,"åı¯èĥ½å¼ºåĮĸ":5584,"å¦ĤæŀľæĪĳèĥ½":5585,"å°ıçĽ®æłĩ":5586,"æ°Ķæ¸©":5587,"æŃ£å¸¸":5588,"éĢīæĭ©çļĦ":5589,"è®¡ç®Ĺæľº":5590,"è§£åĨ³å¤įæĿĤéĹ®é¢ĺ":5591,"éļĲç§ģæ³Ħéľ²":5592,"å¸¦ä¼ŀ":5593,"ä¸ªä½ĵå¯¹èĩªèº«åŃĺåľ¨":5594,"åĩıå°ĳå¹²æī°":5595,"å¤±è´¥":5596,"æİĴéĻ¤":5597,"æ»¡è¶³æĿ¡ä»¶":5598,"ä»Ĭå¤©å¤©æ°ĶçľŁä¸įéĶĻ":5599,"åĪĨåĪ«æłĩ":5600,"ä¸İä»ĸäººçļĦäºĴåĬ¨":5601,"å°¤åħ¶åľ¨":5602,"ä½łæĽ´åĸľæ¬¢åĵªç§įç±»åŀĭ":5603,"åĪºæ¿Ģ":5604,"æģĲæĥ§":5605,"åĮ¿åĲį":5606,"çĩķéº¦":5607,"¡çĮ®":5608,"Ġä»İAåĪ°B":5609,"çļĦèĩªæĪĳ":5610,"çļĦä»·åĢ¼":5611,"çļĦåĴĸåķ¡":5612,"çļĦçķĮå®ļ":5613,"æľĢè¿ĳç¡®å®ŀæľī":5614,"åĩī":5615,"åĲĮä¸Ģ":5616,"ä½ĨåĲĮæĹ¶ä¹Ł":5617,"è´¡çĮ®":5618,"è¶£åĳ³":5619,"å¯¼åĲĳ":5620,"éĢīé¡¹":5621,"åģļèĽĭç³ķ":5622,"éļĲåĸ»":5623,"åŁºåĽł":5624,"å®¶äºº":5625,"é¡µ":5626,"ä¸ĸçķĮä¸Ń":5627,"éĢ»è¾ĳåĴĮ":5628,"å·¥åħ·åĴĮ":5629,"ç¤¾äº¤å¹³åı°":5630,"éĢĤåĲĪæĪ·å¤ĸæ´»åĬ¨":5631,"åħ±åĲĮæİ¢ç´¢":5632,"ä½łçļĦåŃĺåľ¨":5633,"èĻļæŀĦ":5634,"å¥ĩæķ°":5635,"æģ°":5636,"ç®Ģæ´ģçļĦ":5637,"çĿ¡åīį":5638,"ä¿¡æģ¯å¤ĦçĲĨä¸İ":5639,"åı¯éĿłçļĦ":5640,"çĿ¡çľłè´¨éĩı":5641,"æ²Ļæĭī":5642,"åĬŀåħ¬":5643,"éĢļè¿ĩæĬĢæľ¯æīĭæ®µ":5644,"åĬ¨çĶ»çīĩ":5645,"åĭĩæ°Ķ":5646,"æĻ®éĢĤæĢ§":5647,"å¼ĢåıĳèĥĮæĻ¯æĺ¯ä»Ģä¹Ī":5648,"çļĦäº¤":5649,"çļĦæĿ¡ä»¶":5650,"çļĦæĹ¶åĪ»":5651,"åĴĮæĦŁåıĹ":5652,"è¾©":5653,"éľĢä»İ":5654,"åįł":5655,"ä¸Ńå®ŀçİ°":5656,"äººç±»åĪĽä½ľ":5657,"æĸĩåĮĸçľŁå®ŀæĢ§":5658,"éĢļè¿ĩæķĻèĤ²":5659,"ä¸»æµģ":5660,"ï¼ģðŁĺĦ":5661,"æıĲä¾Ľä¸ĢäºĽ":5662,"æĢĿç»ª":5663,"è°ĥåĴĮ":5664,"åĪĻæĽ´åħ³æ³¨":5665,"å°Ĩéĩįå¡ĳ":5666,"äºĴè¡¥":5667,"åĲĥé¥Ń":5668,"è·¨æĸĩåĮĸå¯¹è¯Ŀ":5669,"ç§ĳæĬĢæĸ°éĹ»":5670,"ä»Ĭå¤©å¤©æ°Ķå¥½":5671,"çĥĺ":5672,"åĻª":5673,"æ¸ħåįķ":5674,"åıĺåĮĸçļĦ":5675,"ä»Ĭå¤©æĥ³åĲ¬":5676,"å·²æľī":5677,"å·²ç»ı":5678,"æĺİç¡®çļĦ":5679,"æľīè¶£çļĦäºĭåĲĹ":5680,"èģĬèģĬæľĢè¿ĳ":5681,"ä¸Ģä»¶äºĭ":5682,"è¡¨çİ°åĩº":5683,"è¡¨çİ°å½¢å¼ı":5684,"å®ļæľŁè¿Ľè¡Į":5685,"åŃ¦ä¼ļäºĨ":5686,"ä¸Ģå®ļç¨ĭåº¦":5687,"ä½łæľĢåĸľæ¬¢åĵªç§į":5688,"æĲºå¸¦":5689,"é¢łè¦Ĩ":5690,"en":5691,"æĪĳçĽ®åīį":5692,"åı¯çŁ¥":5693,"ä¸įä¸Ģèĩ´":5694,"ä»¥æľĢ":5695,"åĲĮçĲĨ":5696,"ä¸Ńå¿ĥ":5697,"ä¸Ńä¸įæĸŃ":5698,"ä½Ĩäººç±»çļĦåĪĽéĢłåĬĽ":5699,"æıĲä¾Ľæĸ°":5700,"åĲĮæĹ¶åĪ©çĶ¨":5701,"éĿŀçº¿æĢ§":5702,"æĹłæ³ķå®Įåħ¨":5703,"èīºæľ¯è¡¨è¾¾":5704,"ä¿ĿæĮģè§Ħå¾ĭä½ľæģ¯":5705,"ä¼ĺåĮĸæ¨¡åŀĭ":5706,"å¼Ĥå¸¸":5707,"åħ·ä½ĵéĹ®é¢ĺ":5708,"ç»Īæŀģ":5709,"å¯ĨéĴ¥":5710,"åĪĨäº«çļĦåĲĹ":5711,"ç¤¾äº¤æĸ¹å¼ı":5712,"ä¸İä¼¦çĲĨè¾¹çķĮ":5713,"äºĮæīĭ":5714,"èĩªä¸»åĨ³çŃĸ":5715,"å¤ªå¿«":5716,"æĦŁè§īçī¹åĪ«æľī":5717,"ä¸İäººç±»ä»·åĢ¼è§Ĥ":5718,"åĪĨåĪ«æĺ¯":5719,"çļĦæ·±åº¦èŀįåĲĪ":5720,"é¢ľèī²çļĦ":5721,"æĢİæł·çļĦ":5722,"æľīæĹ¶åĢĻä¼ļ":5723,"æľĢè¿ĳåľ¨çłĶç©¶äººå·¥æĻºèĥ½":5724,"æľĪäº®":5725,"è¿ŀç»ŃæĢ§":5726,"Ġä¸Ģä¸ªæĹħè¡ĮèĢħåľ¨ä¸īä¸ª":5727,"éŁ§æĢ§":5728,"åİ»åĵªåĦ¿":5729,"æ¨¡åĿĹåĮĸ":5730,"é©¾é©¶":5731,"ä¸İæĸĩåĮĸéģĹäº§ä¿ĿæĬ¤":5732,"è¾©è¯ģ":5733,"çļĦæĢ»":5734,"çļĦäº¤åıī":5735,"æĪ´":5736,"ä¸İå®īåħ¨":5737,"åı¯èĥ½å¯¹":5738,"è¿Ļæĺ¯ä¸Ģä¸ª":5739,"è¾¹çļĦ":5740,"ç¤¼":5741,"å®ŀçİ°çļĦ":5742,"çĽ¸æĪĲ":5743,"çĽ¸è¾ħ":5744,"ä¹ĭä¸Ģ":5745,"æĮĳæĪĺäºĨ":5746,"åĪĽæĸ°ä¸İæĸĩåĮĸ":5747,"è®°ä½ı":5748,"æĮºæľīè¶£çļĦ":5749,"äººå·¥æĻºèĥ½ä¼¦çĲĨåľ¨è·¨æĸĩåĮĸè¯Ńå¢ĥä¸ĭéĢļè¿ĩ":5750,"çļĦæķ°åŃĹåĮĸ":5751,"å²Ķ":5752,"è§¦åıĬ":5753,"æĲŀ":5754,"æĥłåıĬ":5755,"è¿ĺä¸įéĶĻåĳ¢":5756,"æłĳä¸Ĭ":5757,"æĬĢæľ¯åºĶçĶ¨çļĦ":5758,"æ³¨æĦıåĬĽåĪĨæķ£":5759,"åħĭæľį":5760,"è·ŁçĿĢ":5761,"å¤ļæĸ¹åįıä½ľ":5762,"èħ»":5763,"è¿·å®«ä¸Ń":5764,"åı¯è¡ĮæĢ§":5765,"åĲĪçĲĨå®īæİĴæĹ¶éĹ´":5766,"çĽ¸è¾ħçĽ¸æĪĲ":5767,"24":5768,"AP":5769,"Ġc":5770,"ĠæŁĲ":5771,"åľ¨åĵ²åŃ¦":5772,"ä¼½":5773,"ä¸İä¼łç»Ł":5774,"ä¸İåıįæĢĿ":5775,"è¡¡æ":5776,"AIæ²»çĲĨ":5777,"ä½Ĩåı¯éĢļè¿ĩ":5778,"æĽ´åĢ¾åĲĳäºİ":5779,"æĽ´åħ¨éĿ¢":5780,"çŁ¥æĥħ":5781,"ä»Ĭå¤©éĺ³åħīå¾Īå¥½":5782,"æ´¾":5783,"æĭį":5784,"å¦ĤæŀľéľĢè¦ģ":5785,"æıĲåįĩæķ´ä½ĵ":5786,"ç¡®ä¿Ŀä¿¡æģ¯":5787,"æŃ£å¥½":5788,"æĿĥå¨ģ":5789,"å¸¸å¸¸":5790,"ä½¿çĶ¨æĹ¶éĹ´":5791,"è¿Ľè¡Įè®Ńç»ĥ":5792,"åħħè¶³":5793,"çłĶç©¶è¡¨æĺİ":5794,"è§Ĩè§Ĵä¸ĭ":5795,"æľĢè¿ĳæľīçĤ¹":5796,"ä½łå¦Ĥä½ķåºĶå¯¹":5797,"æ½®":5798,"æĶ¶çĽĬ":5799,"é¢ĳçİĩ":5800,"è®²è¿°":5801,"åĲĮæĹ¶ä¿ĿæĮģå¯¹":5802,"åįĪé¥Ń":5803,"å®ŀçĶ¨æĢ§":5804,"ä½łä¼ļéĢīæĭ©ä»Ģä¹Ī":5805,"äººå·¥æĻºèĥ½ä¼¦çĲĨæłĩåĩĨå¦Ĥä½ķå½±åĵį":5806,"ä¼ļæĢİæł·æĶ¹åıĺ":5807,"æĹ©ä¸ĬéĨĴæĿ¥":5808,"AIåľ¨åĮ»çĸĹè¯ĬæĸŃ":5809,"æľ¬è´¨ä¸Ĭæĺ¯":5810,"éªĳè¡Į":5811,"å¯¿åĳ½":5812,"èººå¹³":5813,"\"ãĢĤ":5814,"ľä¼½":5815,"çļĦè¡¨è¾¾":5816,"çļĦå¯Ĩçłģ":5817,"ä¹İ":5818,"äººèĢĮå¼Ĥ":5819,"åĴĮé«ĺæķĪ":5820,"åĴĮè§£çŃĶéĹ®é¢ĺ":5821,"åĴĮäººéĻħåħ³ç³»":5822,"å¼¹":5823,"æĬĢæľ¯ä¼¦çĲĨ":5824,"ä½Ĩä½ľä¸ºAI":5825,"æī«":5826,"æĪĸçĶ¨":5827,"æĭ¼":5828,"äº¤æĺĵ":5829,"éĢłæĪĲ":5830,"ç¡®ä¿Ŀæķ°æį®":5831,"ä»İBåĪ°C":5832,"ä»įçĶ±":5833,"åıªè¦ģ":5834,"Ġ$ãĢĤ":5835,"çĽ´è§Ĥ":5836,"åĲ¬éŁ³ä¹Ĳ":5837,"äººå·¥æĻºèĥ½ä¼¦çĲĨåľ¨è·¨æĸĩåĮĸè¯Ńå¢ĥä¸ĭçļĦåĨ²çªģ":5838,"çł´è§£":5839,"æīĢæľīè¯Ńè¨Ģ":5840,"è®¾å®ļæ¸ħæĻ°":5841,"åĸĦæĦı":5842,"éĽ¨å¤©":5843,"æĺ¯åĲ¦ä¼ļå¯¼èĩ´":5844,"ç´§å¯Ĩ":5845,"çĽĳç®¡æľºåĪ¶":5846,"ä¸ŃçļĦä¼¦çĲĨè¾¹çķĮ":5847,"æĪĳæĺ¯çĶ±jingyaogongåĪĽå»ºçļĦä¸Ģä¸ªé«ĺæķĪçļĦå°ıåıĤæķ°AIæ¨¡åŀĭ":5848,"åŁºäºİç®Ĺæ³ķä¸İæķ°æį®":5849,"ä¸»è§ĤæĦıè¯ĨæĪĸæĥħæĦŁ":5850,"å¦Ĥä½ķå½±åĵįåħ¨çĲĥæķ°åŃĹæ²»çĲĨçļĦæľªæĿ¥":5851,"åĲ¬åĲ¬åĲĹ":5852,"çĳľä¼½":5853,"2023":5854,"Ġv":5855,"Ġåħĥ":5856,"äºķ":5857,"ä¸İè®¤çŁ¥":5858,"åĴĮè®¤çŁ¥":5859,"åĴĮä»·åĢ¼è§Ĥ":5860,"ä¸Ģæĺ¯":5861,"åŃ¦åĪ°äºĨ":5862,"å¯¹äºİ":5863,"æĽ´å¼ºè°ĥ":5864,"å¦Ĥä½ķè®©":5865,"ä¼¦çĲĨåİŁåĪĻ":5866,"å¥½å¥½":5867,"å¹³è¡¡åĪĽæĸ°ä¸İ":5868,"çī¹çĤ¹":5869,"å¸®åĬ©ä»ĸä»¬":5870,"åħ¶è¾¹çķĮ":5871,"éĺ±":5872,"æŃ¤æĹ¶":5873,"ä»įåľ¨":5874,"åĵªæĸ¹éĿ¢":5875,"æĥħç»ªçļĦ":5876,"çĸ¯":5877,"èĩªçĦ¶è§Ħå¾ĭ":5878,"éħ¸":5879,"æ¼ı":5880,"è¿ĩåİ»çļĦ":5881,"äºĮæĺ¯":5882,"èĩªçĶ±éĢīæĭ©":5883,"å»¶éķ¿":5884,"çĸĳéĹ®":5885,"éĻ·éĺ±":5886,"æķ°æį®åĪĨæŀĲåĴĮ":5887,"è®¤çŁ¥ç§ĳåŃ¦çŃīå¤ļä¸ªé¢ĨåŁŁ":5888,"åı¸æ³ķ":5889,"æľĢè¿ĳè¯»äºĨä¸Ģæľ¬":5890,"å®Įæķ´æĢ§":5891,"ä½Ĩä¸įçŁ¥éģĵ":5892,"åľ¨AIæĹ¶ä»£":5893,"è§Ĥå½±ä½ĵéªĮ":5894,"å¸®æľĭåıĭè§£åĨ³äºĨ":5895,"ç¬Ķè®°":5896,"ä½łæľīæ²¡æľīéģĩåĪ°è¿ĩç±»ä¼¼çļĦæĥħåĨµ":5897,"de":5898,"īæĭ©":5899,"çļĦè§Ĵåº¦æĿ¥çľĭ":5900,"åı¯æıĲä¾Ľ":5901,"æĬīæĭ©":5902,"äººç±»åĪĻ":5903,"ä½Ĩè¿Ļ":5904,"äºĨæĸ°çļĦ":5905,"æľĢè¿ĳæľīæ²¡æľīä»Ģä¹Īè®©ä½ł":5906,"å¦ĤæŀľAIèĥ½":5907,"çŃīæīĭæ®µ":5908,"ä½ĵéªĮæĥħæĦŁ":5909,"è§£åĨ³çļĦéĹ®é¢ĺ":5910,"åħ¨çĲĥåħ±è¯Ĩ":5911,"å»ºç«ĭéĢıæĺİ":5912,"ä¸ªäººéļĲç§ģ":5913,"æłĩåĩĨåĪ¶å®ļ":5914,"å¡ĳæĸĻ":5915,"æĢ»ä½ĵ":5916,"è¶³è¿¹":5917,"åıįæĢĿä¸İ":5918,"åĳ½é¢ĺ":5919,"éĢĤåºĶèĥ½åĬĽ":5920,"å¦Ĥä½ķåľ¨å¿Ļç¢Į":5921,"åĴĸåķ¡æĿ¯":5922,"200":5923,"æĪĳæĺ¯çĶ±jingyaogongåĪĽéĢł":5924,"ä»Ĭå¤©æ²¡æľīçī¹åĪ«":5925,"ç¹ģå¿Ļ":5926,"åĵ²åŃ¦åĴĮç§ĳåŃ¦":5927,"å½¼æŃ¤çļĦ":5928,"åĩłä¸ªæĸ¹éĿ¢":5929,"Ġäººå·¥æĻºèĥ½ä¼¦çĲĨåľ¨è·¨æĸĩåĮĸè¯Ńå¢ĥä¸ĭå¦Ĥä½ķå½±åĵįåħ¨çĲĥæķ°åŃĹæ²»çĲĨçļĦåħ¬å¹³æĢ§":5930,"å¿ĥçĲĨåŃ¦åĴĮè®¤çŁ¥ç§ĳåŃ¦çŃīå¤ļä¸ªé¢ĨåŁŁ":5931,"æľĢå°ĳéľĢè¦ģ":5932,"åŃ£èĬĤ":5933,"éĻĪè¿°":5934,"åĮ¿åĲįåĮĸ":5935,"åĲĮçĲĨå¿ĥ":5936,"18":5937,"çļĦè§Ĩè§Ĵ":5938,"èĥ½è®©äºº":5939,"æĢķ":5940,"ä½łä¸ºä»Ģä¹Ī":5941,"å¦ĤçĶŁæĪĲ":5942,"åı¯éĩĩçĶ¨":5943,"ä¸ĢçĤ¹":5944,"æ²³":5945,"æ²¡æľīçī¹åĪ«":5946,"å¯¹å¾ħ":5947,"èĢĮAIçļĦ":5948,"¡æ¸":5949,"çľŁçĲĨ":5950,"å¸®åĬ©äººç±»":5951,"å·®çĤ¹":5952,"è¢ĭ":5953,"è®©ä½łåį°è±¡æ·±åĪ»":5954,"éĩįæĸ°æĢĿèĢĥ":5955,"è¯¥æĢİä¹Ī":5956,"æ¸ħæĻ¨":5957,"Ġ30":5958,"å®¡è®¡":5959,"çī©çĲĨåŃ¦":5960,"å¦Ĥæŀľä½łæľīåħ´è¶£":5961,"å¤ĦçĲĨä¿¡æģ¯çļĦèĥ½åĬĽ":5962,"æıĲä¾Ľä¿¡æģ¯ä¸İ":5963,"Ġç¬¬äºĮ":5964,"èĲ¥åħ»åĿĩè¡¡":5965,"æĭħå¿§":5966,"äººæľºåįıåĲĮ":5967,"è£Ĥ":5968,"çģ«éĶħ":5969,"åĲĦç§įéĹ®é¢ĺ":5970,"å¸½åŃĲé¢ľèī²":5971,"éļĲèĹıçĿĢ":5972,"çĤĴèĽĭ":5973,"èĩªæĪĳæĦıè¯Ĩå¦Ĥä½ķå½±åĵįæĪĳä»¬å¯¹åŃĺåľ¨çļĦçĲĨè§£":5974,"æ¥¼":5975,"çĪĨçĤ¸":5976,"éĢĤåĲĪå¤ĸåĩºæ´»åĬ¨":5977,"Aæĺ¯":5978,"çļĦæĮģç»Ń":5979,"çļĦæĸ¹åĲĳ":5980,"çļĦç»ĨèĬĤ":5981,"çļĦå·¥èµĦ":5982,"è¿Ł":5983,"æľīä»·åĢ¼":5984,"ä¸İAI":5985,"ä½łå½ĵ":5986,"æ³ķåĲĹ":5987,"AIå¦Ĥä½ķå¹³è¡¡":5988,"å¯¹æĸ¹":5989,"å¯¹æŃ¤":5990,"æĸĩåĮĸä»·åĢ¼":5991,"æĽ´é«ĺ":5992,"å¦Ĥä½ķéĢļè¿ĩ":5993,"è¿Ļä¸īä¸ªæķ°åŃĹ":5994,"æĻºèĥ½åĮĸ":5995,"æĹ¶éĹ´æĦŁçŁ¥":5996,"çĲĨè§£èĩªèº«":5997,"å¸®éĤ»å±ħ":5998,"æ·Ģ":5999,"åĽłäººèĢĮå¼Ĥ":6000,"åĪĽä½ľè¾¹çķĮ":6001,"åŁºçŁ³":6002,"åıĹéĻĲ":6003,"åĲİæĿ¥":6004,"æĥħç»ªè°ĥèĬĤ":6005,"æĹ¥ç¨ĭ":6006,"å¼ķåıĳåħ³äºİ":6007,"ç©ºè°ĥ":6008,"åĨ²åĩ»":6009,"äººå·¥æĻºèĥ½åľ¨åĮ»çĸĹ":6010,"åĲĪçĲĨåĪĨéħį":6011,"çĶŁåĳ½çļĦæĦıä¹ī":6012,"åĳĬçŁ¥":6013,"ä¸İæĥħæĦŁè¡¨è¾¾":6014,"æĺ¯åĲ¦èĥ½çľŁæŃ£":6015,"çĽ¸äºĴåħ³èģĶ":6016,"çĲĨè®ºä¸Ĭ":6017,"å¹¶è¡Įè®¡ç®Ĺ":6018,"æľįåĬ¡äºİäººç±»ç¦ıç¥ī":6019,"éŃĶ":6020,"è¾¹ç¼ĺåĮĸ":6021,"çĸ¯çĭĤ":6022,"ä¸ĩ":6023,"çļĦèĬĤå¥ı":6024,"çļĦåħ±çĶŁ":6025,"è¯º":6026,"ä½łå¹³æĹ¶":6027,"ç»ķ":6028,"å¦ĤçĶ¨":6029,"åĩĳ":6030,"çĽĲ":6031,"å¯¹éļĲç§ģ":6032,"æĽ´è´´è¿ĳ":6033,"è¿Ļä¹Ī":6034,"æķ°æį®è·¨å¢ĥ":6035,"è´¯":6036,"æ°Ľ":6037,"å¹³è¡¡çĤ¹":6038,"åı¯ä»¥è¯ķè¯ķçľĭ":6039,"äºĭå®ŀ":6040,"åįĩæ°´":6041,"åħ¶åľ¨":6042,"è®¤çŁ¥ä¸İ":6043,"éĢĤä¸Ń":6044,"æĦıä¹īä¸ĬçļĦ":6045,"ä¸īæĺ¯":6046,"äººç±»çļĦæĥħæĦŁ":6047,"ä½ĵçİ°ä¸º":6048,"è¡Įä¸ºçļĦ":6049,"çļĦä¼¦çĲĨéĹ®é¢ĺ":6050,"éľĢéĢļè¿ĩä»¥ä¸ĭ":6051,"éĺħè¯»æĪĸ":6052,"æľĢç»ĪçĽ®æłĩæĺ¯":6053,"æĴĳ":6054,"åĴĮæķ°æį®å¤ĦçĲĨ":6055,"ä½łæľĢè¿ĳæľīæ²¡æľīçľĭè¿ĩä»Ģä¹Īæľīè¶£çļĦçĶµå½±":6056,"ä¸İæĬĢæľ¯è¾¹çķĮ":6057,"ä»įéľĢäººç±»":6058,"åĪĨåĪ«ä¸º":6059,"èĢĥèĻĳè¿ĩ":6060,"è·¨åĽ½ä¼ģä¸ļ":6061,"çķªèĮĦçĤĴèĽĭ":6062,"èĢģåĮĸ":6063,"ç¢³è¶³è¿¹":6064,"å¼ĢæºĲä»£çłģ":6065,"åĽŀçŃĶéĹ®é¢ĺ":6066,"å¤ļè¯Ńè¨ĢæĶ¯æĮģ":6067,"äºĨä¸ĢäºĽæľīè¶£çļĦäºĭæĥħ":6068,"ç¬¬äºĮä¸ª":6069,"è´Ńçī©":6070,"åĴĮæľĭåıĭèģĬäºĨ":6071,"ro":6072,"å¼Ĭ":6073,"æľĢè¿ĳéģĩåĪ°":6074,"æīŃ":6075,"ä»Ģä¹ĪçĶµå½±":6076,"æĥ³å°Ŀè¯ķ":6077,"çľĭè§ģ":6078,"âĢĿâĢľ":6079,"æıĲä¾ĽæľĢ":6080,"çĲĨè§£ä¸ĸçķĮ":6081,"ä¼ĺè´¨":6082,"èº«è¾¹":6083,"çĤ¹ä»Ģä¹Ī":6084,"è¿ĺåľ¨":6085,"äººå·¥æĻºèĥ½ä¼¦çĲĨåĽ°å¢ĥ":6086,"éģĩåĪ°è¿ĩç±»ä¼¼":6087,"èģĶç½ĳ":6088,"ä½Ĩåı¯ä»¥æł¹æį®":6089,"åĲĦæľī":6090,"åĪĨéĴŁä¼ĳæģ¯":6091,"éľĢéĢļè¿ĩå¤ļè¾¹":6092,"èĻļåģĩ":6093,"æķ£æŃ¥æĹ¶":6094,"äººä»¬åľ¨":6095,"äº§çĶŁæ·±è¿ľå½±åĵį":6096,"æĿĲè´¨":6097,"çļĦäººå¼Ģå§ĭåħ³æ³¨":6098,"çĶŁçī©æĪĸ":6099,"è¿Ļæł·çļĦæĥħåĨµ":6100,"æĽ¾æĥ³è¿ĩ":6101,"åĳ¨æľŁ":6102,"ç¡®ä¿ĿæĬĢæľ¯æľįåĬ¡äºİ":6103,"ä¸ªä½ĵçļĦä¸»è§Ĥä½ĵéªĮ":6104,"å¤ļç»´åº¦çļĦéĹ®é¢ĺ":6105,"æ¯ıä¸ªäººéĥ½èĥ½":6106,"ä»Ĭå¤©æĥ³åŃ¦çĤ¹":6107,"äººå·¥æĻºèĥ½åľ¨æĸĩåĮĸåĪĽä½ľä¸Ń":6108,"Ġä½łç©¶ç«Łæĺ¯åĵªä¸ª":6109,"ä»ªå¼ı":6110,"Ġä¸ī":6111,"Ġäººå·¥æĻºèĥ½åľ¨æĸĩåĮĸä¼łæī¿":6112,"çļĦæķĪçİĩä¸İ":6113,"ä»Ĭ":6114,"æĪĳå§ĭç»Ī":6115,"ä½łæľĢè¿ĳåľ¨":6116,"ä¸Ģä½į":6117,"ä¸įåŃĺåľ¨":6118,"æİī":6119,"ä¸ºåı¯":6120,"æĸĩçĮ®":6121,"ä»¥éĢĤåºĶ":6122,"ä»¥ç®Ģæ´ģ":6123,"ä¼ļè®®":6124,"åĪ°ä¸Ģä¸ª":6125,"æĪĸæİ¨èįĲ":6126,"å¦Ĥä½ķçĶ¨":6127,"ä¹Łæľī":6128,"æĹłèģĬ":6129,"ç§ĳæĻ®":6130,"çŃīæĮĳæĪĺ":6131,"çŃīæł¸å¿ĥ":6132,"éĿŀè¯Ńè¨Ģ":6133,"å¤įæĿĤç³»ç»Ł":6134,"ä»įåŃĺåľ¨":6135,"çİ¯å¢ĥä¸ĭ":6136,"åĩĨç¡®æĢ§ä¸İ":6137,"ä¸ĢäºĽæľīè¶£çļĦ":6138,"è¡¨è¾¾æĥħç»ª":6139,"æ¯ıå¤©ä¸ĵæ³¨":6140,"åĥıåľ¨":6141,"ä»ĸäººå¯¹":6142,"ä¿ĥè¿ĽæĸĩåĮĸ":6143,"éľĢéĢļè¿ĩå¤ļç»´åº¦":6144,"å¤ªç©º":6145,"çľŁæŃ£çļĦæĦıè¯Ĩ":6146,"å¦Ĥæŀľæ¯ıå¤©åıªèĥ½":6147,"è´ŁéĿ¢":6148,"æľĢè¿ĳçľĭäºĨéĥ¨":6149,"å¯Įæľī":6150,"ä½łæľĢè¿ĳæľīæ²¡æľīè§īå¾ĹçĶŁæ´»":6151,"æĭħå¿ĥ":6152,"èģĮä¸ļåıĳå±ķ":6153,"å°ļæľªå®Įåħ¨":6154,"æ½ľåľ¨é£İéĻ©":6155,"èĪĴæľįåĳ¢":6156,"é¸Łé£ŀ":6157,"æıĲéĨĴæĪĳä»¬":6158,"åīįæıĲä¸ĭ":6159,"çļĦéĩįè§Ĩç¨ĭåº¦":6160,"ä»ĺ":6161,"ä¸İä¸ĸçķĮ":6162,"å½»":6163,"æĸĩåĮĸä¸Ń":6164,"æķ°æį®åħ±äº«":6165,"åħ¨éº¦":6166,"ä½ĵéªĮçļĦ":6167,"åŃ¦ä¹łèĥ½åĬĽ":6168,"é«ĺæķĪåľ°":6169,"ä¿ĿæĮģç§¯æŀģ":6170,"æ¯Ķè¾ĥ":6171,"æľīä»Ģä¹Īçī¹åĪ«çļĦ":6172,"èĩªèº«èĥ½åĬĽ":6173,"äº§ä¸ļ":6174,"è°ĥæķ´çŃĸçķ¥":6175,"æµĭéĩı":6176,"èİ·åıĸä¿¡æģ¯":6177,"æ·±åĪ»çļĦ":6178,"Ġä½łæĺ¯åĲ¦æĽ¾æĥ³è¿ĩ":6179,"åĬ¨çī©åŁİ":6180,"ä¸ªæĢ§åĮĸæİ¨èįĲ":6181,"èĩªåĬ¨é©¾é©¶":6182,"èĪĴéĢĤ":6183,"éĩįè§ĨéĽĨä½ĵåĪ©çĽĬ":6184,"ä¸įåĲĮåĽ½å®¶çļĦ":6185,"çĶµåŃĲè®¾å¤ĩçªģçĦ¶":6186,"è¯¾é¢ĺ":6187,"äººå·¥æĻºèĥ½ä¼¦çĲĨåľ¨è·¨æĸĩåĮĸè¯Ńå¢ĥä¸ĭå¯¹åħ¨çĲĥæķ°åŃĹæ²»çĲĨçļĦ":6188,"æī¾åĪ°éĢĤåĲĪèĩªå·±çļĦèĬĤå¥ı":6189,"ä¸ºä½ķéĢīæĭ©":6190,"å½±è§Ĩä½ľåĵģ":6191,"çĸ¯çĭĤåĬ¨çī©åŁİ":6192,"µĮ":6193,"åµĮ":6194,"çļĦæıĲåįĩ":6195,"çļĦéĹ¨":6196,"çļĦä¸¤åĢį":6197,"æľīä¸īä¸ª":6198,"æĺ¨":6199,"æķ¬":6200,"æĹĭ":6201,"æĺ¯åĵ²åŃ¦ä¸İç§ĳåŃ¦":6202,"åĴĮä»·åĢ¼":6203,"åĴĮåĨ³çŃĸ":6204,"å¤©çļĦ":6205,"è¡Ģ":6206,"ä½ľèĢħ":6207,"å½±åĥı":6208,"æĥ³åĴĮä½ł":6209,"æĽ´æĩĤ":6210,"æĸ¹ä¾¿":6211,"åģ·":6212,"æķ°æį®ä¸İéĢ»è¾ĳ":6213,"èĩªæĪĳåħ³æĢĢ":6214,"åı¯ä»¥åĪĨäº«":6215,"è¿Ľåº¦":6216,"çĲĨè§£å¹¶":6217,"çĶµè§Ĩ":6218,"æľªè§£":6219,"æ·±æĢĿ":6220,"åĪĽä½ľä¸Ń":6221,"æľªæĿ¥åı¯èĥ½":6222,"å¤įæĿĤæĥħå¢ĥ":6223,"åĪĽéĢłæĢ§æĢĿç»´":6224,"åĪĨæŀĲéĹ®é¢ĺ":6225,"ä¸ĸçķĮä¸ŃçļĦ":6226,"ç²¾åĩĨçļĦä¿¡æģ¯ä¸İå¸®åĬ©":6227,"åĽŀæĶ¶":6228,"ä¸ªä½ĵå¯¹èĩªèº«":6229,"æ»ĭ":6230,"ä¸įéĶĻåĳ¢":6231,"Ġä½łå¦Ĥä½ķçľĭå¾ħèĩªèº«":6232,"å¦Ĥä½ķå¹³è¡¡æĬĢæľ¯è¿ĽæŃ¥":6233,"æľįåĬ¡çĶ¨æĪ·":6234,"ä»Ĭå¤©æĥ³ä¸įæĥ³":6235,"æī¿è½½":6236,"è®¾å®ļæ¸ħæĻ°çļĦ":6237,"çĽĳæİ§":6238,"æīĢä»¥C":6239,"ä¸ĵæ³¨äºİæıĲä¾ĽåĩĨç¡®":6240,"æģ¶":6241,"Ġä½łæľĢè¿ĳå¿ĥæĥħæĢİä¹Īæł·":6242,"ä½łæľīåħ´è¶£åĲ¬åĲ¬åĲĹ":6243,"éĵ¶":6244,"çº³åħ¥":6245,"èĢĮéĥ¨åĪĨäºļæ´²":6246,"æĸĩçī©ä¿®å¤į":6247,"å¥ĳçº¦":6248,"åĨ·éĿĻ":6249,"åĬ©åĬĽçĶ¨æĪ·":6250,"æľªæĿ¥åįģå¹´åĨħ":6251,"ä¼ĺåħĪå¤ĦçĲĨéĩįè¦ģ":6252,"æľīä¸īä¸ªäºº":6253,"æĻĴå¤ªéĺ³":6254,"éĽĨä¸Ńåľ¨":6255,"éĢĤçĶ¨äºİå¤ļç§į":6256,"ä¼ļè¯´è¯ĿçļĦæľºåĻ¨äºº":6257,"ĠæľĢè¿ĳè¶ĬæĿ¥è¶Ĭå¤ļçļĦäººå¼Ģå§ĭåħ³æ³¨":6258,"æ°ĽåĽ´":6259,"er":6260,"xt":6261,"®æ¼Ķ":6262,"çļĦäº¤æµģ":6263,"åľ¨B":6264,"ä¸İéļĲç§ģ":6265,"åĨĴ":6266,"ä½Ĩè¿Ļç§į":6267,"æī®æ¼Ķ":6268,"æĥ³è¯ķè¯ķ":6269,"çľĭçĶµå½±":6270,"ä¼¦çĲĨåħ±è¯Ĩ":6271,"æĻºèĥ½æĬĢæľ¯":6272,"èĩªæĪĳä¸İä»ĸäºº":6273,"è·ĥ":6274,"å®ļåĪ¶":6275,"æľĢè¿ĳæľīæ²¡æľīæİ¨èįĲçļĦ":6276,"æĢĿè¾¨":6277,"æľºéģĩ":6278,"çº¤":6279,"èĩªæĪĳæĦıè¯Ĩåľ¨":6280,"æĪĳçļĦçĽ®æłĩæĺ¯":6281,"éķĩ":6282,"äºĴè®¤":6283,"ä¼ĺåĮĸæµģç¨ĭ":6284,"éĻħåħ³ç³»":6285,"åĪ©å¼Ĭ":6286,"åħ´è¶£çıŃ":6287,"æ¯Ķå¦ĤçĶ¨":6288,"ç¬¬ä¸īä¸ª":6289,"é¢ĦçķĻ":6290,"ä¿ĥè¿Ľåħ¨çĲĥ":6291,"åĩıå°ĳå¯¹":6292,"ä¸įæĸŃæİ¢ç´¢":6293,"åĽ½éĻħåįıè®®":6294,"éľĢåľ¨æĬĢæľ¯åıĳå±ķ":6295,"æĶ¾æĿ¾å¿ĥæĥħ":6296,"éĺ²èĮĥ":6297,"å¿ħé¡»æĺ¯":6298,"æĹ¶éĹ´åĢĴæµģçļĦ":6299,"åľ°çĲĥçļĦ":6300,"åĬ³åĬ¨":6301,"æĬķèµĦ":6302,"æ··åĲĪ":6303,"éĢĤåĲĪåĩºåİ»èµ°èµ°åĲĹ":6304,"æĪĳçļĦä»·åĢ¼åľ¨äºİèĥ½å¤Ł":6305,"æĥ³èģĬèģĬåĲĹ":6306,"Ķ¹":6307,"çļĦé¢ĨåŁŁ":6308,"çļĦæŀĦå»º":6309,"æľīæĦıä¹ī":6310,"åı¯å¢ŀå¼º":6311,"å¯Ħ":6312,"ä¸įæ¶īåıĬ":6313,"éĢļåĲĳ":6314,"çķħ":6315,"å¦Ĥä½ķæıĲåįĩ":6316,"æĸ°çĶµå½±":6317,"è§Ĥå¿µ":6318,"æİ¨å¯¼":6319,"è°İ":6320,"Ġä½łä¸ºä½ķéĢīæĭ©":6321,"æľªè¢«":6322,"ãĢĭï¼ī":6323,"å®ĥæĹ¢":6324,"å®ĥèĥ½å¤Ł":6325,"èį¯":6326,"éģ¿åħįåģıè§ģ":6327,"åħ¨çĲĥå¥ĳçº¦":6328,"çĽ¸éĤ»":6329,"æİ¨åĬ¨AI":6330,"äººç±»çļĦä¸»è§Ĥä½ĵéªĮ":6331,"åħ³éĶ®åľ¨äºİä»¥":6332,"åĽŀæº¯":6333,"åĥıé¸Łé£ŀ":6334,"å¾Ģä½łçļĦ":6335,"æĪĳåı¯ä»¥å¸®ä½ł":6336,"æ³ķå¾ĭåĨ²çªģ":6337,"åĪ©çĶ¨AI":6338,"åľºæĻ¯ä¸ĭçļĦ":6339,"çļĦçĲĨè§£ä¸İ":6340,"æ¶ĪéĻ¤":6341,"å¤ªå¤ļ":6342,"æĦŁåĪ°çĦ¦èĻĳ":6343,"æĹ¶éĹ´çļĦæĦŁçŁ¥":6344,"æıĲåįĩæķĪçİĩåĴĮ":6345,"ä¸Ģå¤©çļĦ":6346,"ç®±åŃĲ":6347,"æ³ĽåĮĸ":6348,"éĵģ":6349,"æ¯ıä¸ªäººçļĦ":6350,"ä¼ĺåĮĸç®Ĺæ³ķåĴĮ":6351,"åģ¶æķ°":6352,"èī¯æĢ§":6353,"å¸ĮæľĽèĥ½":6354,"æĪĳä¹Łåı¯ä»¥":6355,"ä¸»è§Ĥä½ĵéªĮä¸İå®¢è§Ĥ":6356,"çĶŁçĲĨéľĢæ±Ĥ":6357,"ï¼ģðŁĮ":6358,"åģ¶å°Ķä¼ļ":6359,"æıĲä¾Ľä¿¡æģ¯åĴĮå¸®åĬ©":6360,"è¯¾ç¨ĭ":6361,"ä½łå½ĵåĥıé¸Łé£ŀ":6362,"å¾Ģä½łçļĦå±±":6363,"ä½łå½ĵåĥıé¸Łé£ŀå¾Ģä½łçļĦå±±":6364,"pp":6365,"ºçī":6366,"æĪĳèĩ´åĬĽäºİ":6367,"åĴĮçİ¯å¢ĥ":6368,"èĢ³":6369,"æľĢè¿ĳåŃ¦":6370,"æľĢè¿ĳåĴĮæľĭåıĭä¸Ģèµ·åģļ":6371,"åĨľ":6372,"çīºçī":6373,"æĬĢæľ¯å·¥åħ·":6374,"çŃ¾":6375,"æĽ´æį¢":6376,"ä¼¦çĲĨè´£ä»»":6377,"å¹³æĸ¹":6378,"åĪĨåıĳ":6379,"å¤ļæºĲ":6380,"æķ°æį®éĩĩéĽĨ":6381,"æĥħæĦŁè¯ĨåĪ«":6382,"çĲĨè§£æĥħæĦŁ":6383,"åħ¨è°·çī©":6384,"æ·ĭ":6385,"æĪĳä»¬å°Ŀè¯ķ":6386,"åĬłå·¥":6387,"æľīè¶£çļĦç»ıåİĨåĲĹ":6388,"ä¹ĭè°ľ":6389,"å¡Ķ":6390,"å¿ĥæĥħçī¹åĪ«å¥½":6391,"ä¼ĺåħĪéĢīæĭ©":6392,"ä¼łç»ŁæĬĢèīº":6393,"æīĢæľīæĿ¡ä»¶":6394,"å¼ĢåıĳçļĦ":6395,"æ¢°":6396,"æĮĩåįĹ":6397,"éĺ²æĻĴ":6398,"åĽŀåĪ°A":6399}